[PAD]
[UNK]
[CLS]
[SEP]
[MASK]
!
,
.
?
ᄀ
ᄁ
ᄂ
ᄃ
ᄄ
ᄅ
ᄆ
ᄇ
ᄈ
ᄉ
ᄊ
ᄋ
ᄌ
ᄍ
ᄎ
ᄏ
ᄐ
ᄑ
ᄒ
ᄓ
ᄕ
ᄾ
ᅌ
ᅘ
ᅙ
ᅟ
ᅡ
ᅢ
ᅥ
ᅧ
ᅨ
ᅳ
ᅵ
ᆉ
ᆌ
ᆞ
ᆡ
ᆢ
ᆦ
ᆨ
ᆩ
ᆫ
ᆮ
ᆯ
ᆰ
ᆱ
ᆲ
ᆷ
ᆸ
ᆺ
ᆼ
ᆽ
ᆾ
ᇀ
ᇁ
ᇇ
ᇐ
ᇕ
ᇢ
ᇦ
ㄱ
ㄲ
ㄴ
ㄷ
ㄸ
ㄹ
ㄻ
ㅁ
ㅂ
ㅃ
ㅅ
ㅆ
ㅇ
ㅈ
ㅉ
ㅊ
ㅋ
ㅌ
ㅍ
ㅎ
ㅏ
ㅐ
ㅑ
ㅒ
ㅓ
ㅔ
ㅕ
ㅗ
ㅘ
ㅛ
ㅜ
ㅝ
ㅠ
ㅡ
ㅣ
ㆍ
㎝
中
竹
耕
가
각
갂
간
갇
갈
갉
갊
갋
감
갑
값
갓
갔
강
갖
갗
같
갚
갛
개
객
갠
갤
갬
갭
갯
갰
갱
갷
갸
갹
갼
걀
걌
걍
걑
걔
걕
걘
걜
걩
거
걱
걲
건
걵
걷
걸
검
겁
겂
것
겄
겅
겆
겉
겊
겋
게
겍
겐
겔
겜
겝
겟
겠
겡
겧
겨
격
겪
견
겯
결
겸
겹
겻
겼
경
곀
곁
곂
계
곈
곌
곕
곗
곘
곙
고
곡
곤
곧
골
곪
곬
곯
곰
곱
곳
곴
공
곶
곷
곹
곺
곻
과
곽
관
괃
괄
괌
괍
괏
괐
광
괘
괙
괜
괞
괨
괫
괭
괴
괸
괼
굄
굅
굉
교
굑
굔
굘
굣
굥
구
국
군
굲
굳
굴
굵
굶
굻
굼
굽
굿
궁
궂
궃
궅
궈
권
궏
궐
궘
궙
궛
궜
궝
궤
궥
궨
궬
궴
궵
궷
궹
귀
귁
귄
귈
귐
귑
귓
귔
규
귝
균
귣
귤
귯
그
극
근
귾
귿
글
긁
긂
긄
긇
금
급
긋
긍
긎
긑
긔
긘
긜
긧
기
긱
긴
긷
길
긿
김
깁
깃
깄
깅
깆
깉
깊
까
깍
깎
깐
깔
깛
깜
깝
깞
깟
깠
깡
깢
깣
깥
깧
깨
깩
깬
깰
깸
깹
깻
깼
깽
꺁
꺂
꺄
꺅
꺆
꺠
꺡
꺤
꺨
꺳
꺴
꺵
꺼
꺽
꺾
껀
껄
껌
껍
껏
껐
껑
껕
껗
께
껙
껜
껟
껠
껨
껩
껫
껬
껭
껱
껴
껵
껶
껸
꼄
꼅
꼇
꼈
꼉
꼍
꼐
꼔
꼬
꼭
꼰
꼳
꼴
꼻
꼼
꼽
꼿
꽁
꽂
꽃
꽅
꽈
꽉
꽊
꽌
꽐
꽘
꽛
꽜
꽝
꽞
꽤
꽥
꽨
꽷
꽹
꾀
꾁
꾄
꾈
꾐
꾔
꾕
꾜
꾝
꾳
꾸
꾹
꾼
꾿
꿀
꿂
꿇
꿈
꿉
꿋
꿍
꿎
꿓
꿔
꿕
꿘
꿜
꿤
꿧
꿨
꿩
꿰
꿱
꿴
꿸
뀀
뀁
뀃
뀄
뀅
뀌
뀐
뀔
뀝
뀠
뀨
끄
끅
끈
끊
끋
끌
끍
끎
끓
끔
끕
끗
끙
끝
끠
끤
끳
끼
끽
끾
낀
낄
낋
낌
낍
낏
낑
낕
나
낙
낚
난
낟
날
낡
낢
낣
남
납
낫
났
낭
낮
낯
낱
낳
내
낵
낸
낼
냄
냅
냇
냈
냉
냐
냑
냔
냘
냠
냡
냤
냥
냬
냰
넁
너
넉
넊
넋
넌
널
넑
넒
넓
넖
넗
넘
넙
넚
넛
넜
넝
넡
넢
넣
네
넥
넨
넫
넬
넴
넵
넷
넸
넹
넽
넿
녀
녁
녂
년
녈
념
녑
녓
녔
녕
녘
녜
녠
녯
녱
노
녹
논
놀
놂
놈
놉
놋
농
놎
놏
놑
높
놓
놔
놕
놘
놤
놥
놧
놨
놩
놯
놰
뇁
뇌
뇐
뇜
뇠
뇨
뇬
뇰
뇸
뇽
누
눅
눈
눋
눌
눔
눕
눗
눙
눞
눟
눠
눤
눨
눰
눳
눴
눵
눼
뉀
뉏
뉘
뉜
뉠
뉩
뉴
뉵
뉸
늄
늉
느
늑
는
늕
늗
늘
늙
늠
늡
늣
능
늦
늩
늪
늫
늬
늰
늴
늿
니
닉
닊
닌
닏
닐
님
닙
닛
닜
닝
닞
닢
닣
다
닥
닦
단
닪
닫
달
닭
닮
닯
닳
담
답
닶
닷
닸
당
닺
닻
닽
닿
대
댁
댄
댇
댈
댐
댑
댓
댔
댕
댜
댱
댷
댸
더
덕
덖
던
덛
덜
덝
덞
덟
덣
덤
덥
덧
덨
덩
덫
덮
덯
데
덱
덴
덷
델
뎀
뎁
뎃
뎄
뎅
뎆
뎊
뎌
뎐
뎜
뎠
뎡
뎦
뎨
뎬
도
독
돈
돋
돌
돍
돎
돔
돕
돗
돘
동
돚
돛
돝
돟
돠
돤
돨
돳
돴
돵
돼
됀
됄
됌
됍
됏
됐
됑
되
됙
된
될
됨
됩
됫
됬
됭
됮
두
둑
둔
둗
둘
둚
둠
둡
둣
둤
둥
둬
둭
둰
둴
둼
둽
둿
뒀
뒁
뒈
뒌
뒐
뒘
뒙
뒛
뒝
뒤
뒨
뒬
뒷
뒸
뒹
듀
듈
듐
듕
드
득
든
듣
들
듦
듬
듭
듯
등
듸
듼
딀
딋
딍
디
딕
딘
딛
딜
딞
딤
딥
딧
딨
딩
딪
딫
딮
따
딱
딲
딴
딸
딺
땀
땁
땃
땄
땅
땋
때
땍
땐
땔
땜
땝
땟
땠
땡
땨
땽
떄
떈
떌
떔
떘
떙
떠
떡
떢
떤
떨
떪
떫
떯
떰
떱
떳
떴
떵
떻
떼
떽
뗀
뗄
뗌
뗍
뗏
뗐
뗑
뗗
뗘
뗙
뗜
뗬
뗭
뗴
뗵
뗸
뗼
또
똑
똒
똔
똗
똘
똟
똠
똡
똣
똥
똩
똬
똭
똰
뙁
뙈
뙤
뙨
뙬
뚜
뚝
뚞
뚠
뚤
뚦
뚧
뚫
뚬
뚯
뚱
뚸
뚼
뛌
뛍
뛔
뛰
뛴
뛸
뜀
뜁
뜅
뜌
뜨
뜩
뜬
뜯
뜰
뜷
뜸
뜹
뜻
뜽
띁
띃
띄
띈
띌
띔
띕
띠
띡
띤
띧
띨
띰
띱
띴
띵
라
락
란
랃
랄
람
랍
랏
랐
랑
랔
랖
랗
래
랙
랜
랟
랠
램
랩
랫
랬
랭
랳
랴
략
랸
럇
럈
량
럔
럤
러
럭
런
럴
럼
럽
럿
렀
렁
렃
렄
렇
레
렉
렌
렐
렘
렙
렛
렜
렝
려
력
련
렫
렬
렴
렵
렷
렸
령
렽
렾
렿
례
롄
롈
롔
로
록
론
롤
롥
롬
롭
롯
롱
롶
롷
롸
롼
뢀
뢈
뢋
뢌
뢍
뢰
료
룍
룐
룔
룝
룟
룡
루
룩
룬
룰
룸
룹
룻
룽
뤀
뤂
뤄
뤈
뤌
뤔
뤗
뤘
뤙
뤠
뤡
뤳
뤼
뤽
륀
륄
류
륙
륜
률
륨
륩
륭
르
륵
른
를
름
릅
릇
릉
릎
릏
릐
리
릭
린
릳
릴
림
립
릿
맀
링
맄
맆
맇
마
막
만
맍
많
맏
말
맑
맒
맗
맘
맙
맛
맜
망
맞
맟
맡
맣
매
맥
맨
맫
맬
맴
맵
맷
맸
맹
맺
맻
맽
맿
먀
먁
먄
먈
먕
먖
먗
먜
머
먹
먺
먼
먾
먿
멀
멈
멉
멊
멋
멌
멍
멎
멓
메
멕
멘
멜
멤
멥
멧
멨
멩
멪
멫
멭
며
멱
면
멶
멸
몀
몃
몄
명
몆
몇
몊
몐
몟
몣
모
목
몫
몬
몯
몰
몸
몹
몺
못
몽
몾
뫃
뫄
뫘
뫼
묄
묏
묘
묙
묜
묠
묫
묭
묮
무
묵
묶
문
묻
물
묽
묾
뭄
뭅
뭇
뭉
뭍
뭏
뭐
뭔
뭘
뭠
뭡
뭣
뭤
뭥
뭬
뮈
뮌
뮤
뮥
뮬
므
믄
믈
믐
믑
믓
믕
믜
믠
믯
미
믹
민
믾
믿
밀
밈
밉
밋
밌
밍
밎
및
밑
바
박
밖
반
받
발
밝
밞
밟
밤
밥
밧
밨
방
밪
밭
배
백
밲
밴
밷
밸
밻
뱀
뱁
뱃
뱄
뱅
뱇
뱈
뱉
뱌
뱍
뱓
뱔
뱡
버
벅
벆
번
벋
벌
벍
벏
범
법
벗
벘
벙
벚
벛
벝
베
벡
벢
벤
벧
벨
벰
벱
벳
벴
벵
벷
벹
벼
벽
변
볃
별
볌
볍
볏
볐
병
볓
볔
볕
볖
보
복
볶
본
볻
볼
볽
볿
봄
봅
봇
봈
봉
봍
봐
봑
봒
봔
봘
봠
봡
봣
봤
봥
봬
봰
봼
뵀
뵁
뵈
뵌
뵐
뵘
뵙
뵛
뵜
뵝
뵤
뵹
부
북
붂
분
붇
불
붉
붊
붋
붐
붑
붓
붕
붙
붤
붥
붸
붼
뷀
뷁
뷉
뷔
뷰
뷱
뷴
뷸
븅
브
븍
븐
블
븜
븝
븟
븡
븥
븨
비
빅
빈
빋
빌
빔
빕
빗
빘
빙
빚
빛
빝
빠
빡
빤
빧
빨
빫
빰
빱
빳
빴
빵
빻
빼
빽
빾
뺀
뺄
뺌
뺍
뺏
뺐
뺑
뺕
뺘
뺠
뺨
뺴
뺵
뺸
뺼
뻇
뻈
뻉
뻐
뻑
뻔
뻗
뻘
뻠
뻣
뻤
뻥
뻬
뻭
뻮
뻰
뻴
뻿
뼀
뼁
뼈
뼉
뼌
뼘
뼛
뼜
뼝
뼤
뼷
뽀
뽁
뽂
뽄
뽇
뽈
뽐
뽑
뽓
뽕
뽖
뽛
뽜
뽝
뽠
뽰
뽱
뾰
뾱
뿅
뿌
뿍
뿐
뿔
뿕
뿜
뿝
뿡
뿩
쀨
쁑
쁘
쁜
쁠
쁨
쁩
쁫
삐
삑
삔
삘
삠
삡
삣
삥
삧
사
삭
삮
삯
산
살
삵
삶
삷
삻
삼
삽
삿
샀
상
샃
샅
샆
샇
새
색
샊
샋
샌
샏
샐
샘
샙
샛
샜
생
샤
샥
샨
샬
샴
샵
샷
샸
샹
샾
섀
섄
서
석
섞
선
섣
설
섥
섦
섧
섬
섭
섯
섰
성
섵
섶
세
섹
센
섿
셀
셈
셉
셋
셌
셍
셔
셖
션
셜
셤
셥
셧
셨
셩
셰
셴
셸
소
속
솎
손
솓
솔
솕
솖
솜
솝
솟
송
솥
솦
솧
솨
솩
솰
솸
솼
솽
쇄
쇅
쇗
쇙
쇠
쇤
쇱
쇳
쇵
쇼
쇽
숀
숄
숍
숏
숑
숖
수
숙
숚
순
숟
술
숨
숩
숫
숭
숯
숱
숲
숴
숸
숼
쉄
쉈
쉉
쉐
쉑
쉔
쉘
쉡
쉣
쉥
쉩
쉬
쉭
쉰
쉴
쉼
쉽
쉿
슁
슈
슉
슌
슐
슘
슛
슝
슟
스
슥
슨
슬
슭
슴
습
슷
승
슻
슽
슾
싀
싄
싓
싕
시
식
싞
신
싣
실
싥
싦
싨
싫
심
십
싯
싰
싱
싲
싳
싵
싶
싸
싹
싻
싼
싾
싿
쌀
쌂
쌃
쌈
쌉
쌋
쌌
쌍
쌓
쌔
쌕
쌘
쌜
쌤
쌥
쌧
쌨
쌩
쌰
쌱
쌴
쌸
썅
썌
썍
썐
썜
썡
써
썩
썪
썬
썰
썲
썸
썹
썻
썼
썽
쎂
쎄
쎅
쎈
쎌
쎔
쎕
쎗
쎘
쎙
쎠
쎡
쎴
쎵
쎼
쏀
쏍
쏐
쏘
쏙
쏜
쏟
쏠
쏢
쏨
쏩
쏫
쏭
쏱
쏳
쏴
쏵
쏸
쏼
쐅
쐇
쐈
쐉
쐐
쐤
쐥
쐬
쐰
쐴
쐼
쑀
쑁
쑈
쑉
쑌
쑝
쑤
쑥
쑨
쑫
쑬
쑴
쑵
쑷
쑹
쒀
쒄
쒐
쒓
쒔
쒕
쒜
쒝
쒠
쒯
쒰
쒱
쒵
쒸
쒹
쒼
쓕
쓰
쓱
쓴
쓸
쓿
씀
씁
씅
씌
씜
씨
씩
씪
씬
씯
씰
씸
씹
씻
씼
씽
아
악
안
앉
않
앋
알
앍
앎
앏
앓
암
압
앖
앗
았
앙
앚
앜
앝
앞
앟
애
액
앤
앨
앰
앱
앳
앴
앵
야
약
얀
얃
얄
얆
얇
얉
얊
얋
얌
얍
얏
얐
양
얒
얕
얖
얗
얘
얙
얜
얟
얠
얫
얬
얭
어
억
얶
언
얹
얺
얻
얼
얽
얾
엃
엄
업
없
엇
었
엉
엊
엌
엍
엎
엏
에
엑
엔
엘
엠
엡
엣
엤
엥
여
역
엮
연
열
엵
엷
염
엽
엾
엿
였
영
옂
옄
옅
옆
옇
예
옉
옌
옐
옘
옙
옛
옜
옝
옣
오
옥
온
옫
올
옭
옮
옯
옳
옴
옵
옶
옷
옸
옹
옻
옾
와
왁
완
왅
왈
왐
왑
왓
왔
왕
왖
왜
왝
왠
왤
왬
왭
왰
왱
외
왼
욀
욈
욉
욋
욌
욍
요
욕
욖
욘
욜
욤
욥
욧
용
욮
우
욱
운
울
움
웁
웃
웄
웅
웆
웉
워
웍
원
웒
월
웜
웝
웟
웠
웡
웨
웩
웬
웰
웸
웹
웻
웽
위
윅
윈
윌
윔
윗
윙
유
육
윤
율
윰
윱
윳
융
윷
으
윽
은
읃
을
읅
읆
읇
읊
음
읍
읎
읏
응
읒
읓
읔
읕
읖
읗
의
읜
읠
읫
읭
이
익
읶
인
읺
읻
일
읽
잃
임
입
잆
잇
있
잉
잊
잌
잎
잏
자
작
잔
잖
잘
잙
잚
잛
잠
잡
잢
잣
잤
장
잦
잧
잪
잫
재
잭
잰
잴
잼
잽
잿
쟀
쟁
쟂
쟈
쟌
쟎
쟜
쟝
쟤
쟨
쟷
쟹
저
적
전
젆
젇
절
젊
젋
젏
점
접
젓
젔
정
젖
젚
젛
제
젝
젠
젤
젬
젭
젯
젰
젱
젲
져
젹
젼
졀
졈
졉
졋
졌
졍
졎
졔
졘
졩
조
족
존
졷
졸
졺
좀
좁
좃
종
좆
좇
좋
좌
좍
좐
좔
좜
좝
좡
좬
좼
좽
죄
죅
죈
죌
죕
죗
죙
죠
죡
죤
죨
죵
주
죽
준
줄
줅
줌
줍
줏
줐
중
줒
줗
줘
줙
줜
줟
줠
줨
줩
줫
줬
줭
줴
줸
쥄
쥅
쥉
쥐
쥑
쥔
쥘
쥡
쥣
쥥
쥬
쥭
쥰
쥴
쥼
즁
즈
즉
즌
즐
즘
즙
즛
증
즞
지
직
진
짆
짇
질
짊
짋
짐
집
짒
짓
짔
징
짖
짙
짚
짛
짜
짝
짞
짠
짢
짤
짥
짦
짧
짬
짭
짯
짰
짱
짲
째
짹
짺
짼
쨀
쨈
쨉
쨋
쨌
쨍
쨎
쨑
쨔
쨕
쨜
쨩
쨰
쨴
쨸
쩀
쩁
쩃
쩄
쩅
쩌
쩍
쩐
쩔
쩜
쩝
쩟
쩠
쩡
쩢
쩧
쩨
쩩
쩬
쩰
쩹
쩻
쩼
쩽
쪄
쪈
쪌
쪔
쪗
쪘
쪙
쪨
쪼
쪽
쪾
쫀
쫄
쫇
쫌
쫍
쫏
쫑
쫒
쫓
쫗
쫘
쫙
쫜
쫫
쫬
쫭
쫴
쬐
쬑
쬔
쬘
쬠
쭃
쭈
쭉
쭊
쭌
쭐
쭘
쭙
쭝
쭤
쮀
쮄
쮈
쮸
쯔
쯕
쯘
쯤
쯥
쯧
쯩
쯪
찌
찍
찎
찐
찔
찕
찜
찝
찟
찡
찢
찣
찦
찧
차
착
찬
찮
찰
찱
참
찹
찻
찼
창
찾
찿
챃
채
책
챈
챌
챔
챕
챗
챘
챙
챠
챡
챤
챦
챱
챳
챵
처
척
천
철
첨
첩
첫
첬
청
첮
체
첵
첸
첼
쳇
쳉
쳌
쳐
쳑
쳔
쳘
쳚
쳠
쳣
쳤
쳥
쳬
쳰
초
촉
촌
촐
촘
촙
촛
촜
총
촞
촟
촣
촤
촥
촨
촬
촴
촷
촸
촹
쵀
최
쵝
쵸
춀
춋
춌
추
축
춘
춚
춛
출
춤
춥
춧
충
춰
춴
춸
췀
췁
췃
췄
췅
췆
췌
췍
췟
취
췩
췬
췰
췸
췹
췻
츄
츈
츙
츠
측
츤
츨
츩
츰
츱
츳
층
치
칙
친
칞
칟
칠
칡
침
칩
칫
칭
칮
칰
칲
카
칵
칸
칼
캄
캅
캇
캈
캉
캎
캐
캑
캔
캘
캠
캡
캣
캤
캥
캩
캬
캭
컁
커
컥
컨
컫
컬
컴
컵
컷
컸
컹
컼
케
켁
켄
켈
켐
켓
켔
켕
켜
켝
켠
켤
켬
켭
켯
켰
켱
코
콕
콘
콜
콤
콥
콧
콩
콰
콱
콴
콸
쾅
쾌
쾍
쾐
쾜
쾡
쾰
쿄
쿠
쿡
쿤
쿨
쿰
쿱
쿳
쿵
쿺
쿼
쿽
퀀
퀄
퀏
퀑
퀘
퀜
퀭
퀴
퀵
퀸
퀼
큄
큅
큇
큐
큔
큘
큩
크
큭
큰
클
큼
큽
큿
킁
킄
키
킥
킨
킬
킴
킵
킷
킸
킹
타
탁
탄
탇
탈
탉
탐
탑
탓
탔
탕
탖
태
택
탠
탤
탬
탭
탯
탰
탱
탸
턘
터
턱
턴
턷
털
텀
텁
텃
텄
텅
텉
테
텍
텐
텔
템
텝
텟
텡
텨
텬
텸
텼
텽
톈
토
톡
톤
톧
톨
톰
톱
톳
통
톹
톼
톽
퇀
퇏
퇑
퇘
퇴
퇸
퇼
툇
툐
투
툭
툰
툴
툼
툽
툿
퉁
퉈
퉌
퉜
퉝
퉤
퉥
퉷
튀
튄
튈
튐
튑
튓
튕
튜
튝
튠
튤
튬
튭
트
특
튼
튿
틀
틈
틉
틋
틍
틑
틔
틘
티
틱
틴
틷
틸
팀
팁
팃
팅
팊
파
팍
팎
판
팓
팔
팖
팙
팜
팝
팟
팠
팡
팤
팥
팦
패
팩
팬
팰
팸
팹
팻
팼
팽
퍄
퍅
퍠
퍼
퍽
펀
펄
펌
펍
펏
펐
펑
펕
페
펙
펜
펠
펨
펩
펫
펭
펴
편
펼
폄
폅
폇
폈
평
폐
폔
폣
포
폭
폰
폴
폼
폽
폿
퐁
퐅
퐉
퐜
퐝
푀
표
푝
푠
푤
푯
푸
푹
푼
풀
풂
품
풉
풋
풍
풑
풔
풜
풰
퓨
퓰
퓸
퓽
프
픈
플
픔
픕
픙
픠
픤
피
픽
핀
필
핌
핍
핏
핑
하
학
한
핝
핞
핟
할
핡
핢
핥
핧
함
합
핫
핬
항
핮
핰
핳
해
핵
핶
핸
핻
핼
햄
햅
햇
했
행
햋
햍
햐
햑
햔
햘
햝
햟
햤
향
햫
햬
햿
헀
허
헉
헌
헐
헑
험
헙
헛
헜
헝
헠
헡
헣
헤
헥
헨
헬
헴
헵
헷
헸
헹
헿
혀
혁
현
혈
혐
협
혓
혔
형
혜
혠
혬
혰
호
혹
혼
혿
홀
홅
홇
홈
홉
홋
홍
홑
홓
화
확
환
활
홤
홥
홧
황
홰
홱
횃
횄
횅
회
획
횐
횔
횝
횟
횡
횢
효
횬
횹
횽
후
훅
훈
훌
훍
훑
훓
훔
훕
훗
훙
훠
훤
훨
훵
훼
훽
휀
휄
휏
휑
휘
휙
휜
휠
휩
휫
휭
휴
휵
휸
휼
흉
흐
흑
흔
흗
흘
흙
흝
흟
흠
흡
흣
흥
흩
흫
희
흭
흰
흴
흽
히
힉
힌
힐
힘
힙
힛
힝
##부
##니
##까
##어
##야
##돼
##섯
##으
##로
##황
##종
##료
##구
##더
##마
##는
##목
##지
##피
##를
##있
##었
##냐
##겠
##나
##라
##렸
##네
##규
##봉
##신
##가
##슨
##맛
##인
##크
##해
##다
##줘
##키
##요
##카
##페
##을
##도
##뭐
##했
##거
##든
##매
##에
##민
##되
##디
##성
##데
##이
##고
##만
##뤗
##당
##같
##은
##전
##됐
##난
##음
##터
##자
##분
##언
##짜
##곶
##왐
##땐
##행
##갈
##추
##기
##게
##났
##줄
##긴
##것
##렀
##수
##려
##놔
##버
##리
##던
##꾼
##들
##의
##안
##할
##면
##그
##러
##주
##트
##류
##란
##래
##씀
##직
##죽
##진
##정
##책
##함
##처
##럼
##글
##보
##하
##치
##밖
##옵
##반
##떼
##켜
##멍
##스
##듯
##우
##사
##호
##씨
##철
##둬
##두
##뺌
##랬
##와
##길
##쿠
##덴
##혼
##시
##빠
##잖
##아
##영
##릉
##텐
##약
##느
##쟁
##회
##집
##볼
##화
##오
##말
##속
##벌
##런
##갔
##패
##딩
##ᆞ
##ᆯ
##렝
##찰
##연
##출
##앗
##생
##상
##촐
##물
##닥
##찌
##걸
##잰
##믄
##계
##발
##한
##였
##랑
##바
##울
##큼
##학
##교
##때
##강
##루
##년
##역
##떡
##악
##투
##병
##원
##젼
##씸
##혁
##테
##별
##소
##르
##쳐
##린
##운
##드
##식
##랜
##형
##닝
##몸
##작
##깐
##억
##천
##았
##예
##똥
##문
##쭈
##필
##줍
##써
##장
##급
##서
##관
##간
##일
##뤘
##죄
##셔
##령
##짓
##른
##군
##척
##비
##퍼
##껍
##넨
##타
##칼
##몽
##눴
##파
##여
##렇
##삭
##먹
##맨
##꼼
##허
##산
##락
##노
##릇
##번
##방
##모
##릴
##십
##입
##저
##단
##쯤
##택
##람
##차
##업
##읍
##커
##미
##쪽
##개
##법
##녁
##씩
##줬
##졌
##팔
##세
##티
##엽
##망
##각
##낭
##왔
##곡
##욕
##심
##꺼
##굴
##껄
##름
##째
##액
##대
##동
##열
##덟
##남
##국
##육
##실
##둥
##친
##양
##햄
##봐
##새
##엔
##져
##녔
##통
##ᆺ
##헌
##눠
##웰
##깡
##밭
##내
##젠
##뒁
##선
##엄
##침
##벳
##띠
##옌
##흉
##중
##컵
##댄
##꽈
##송
##불
##착
##벽
##독
##엉
##록
##술
##절
##켄
##무
##효
##율
##청
##본
##뎌
##백
##짐
##녜
##봤
##룩
##삐
##못
##콤
##짱
##풀
##금
##제
##봔
##깨
##빵
##쓰
##받
##너
##홉
##궁
##배
##광
##놀
##핸
##츠
##촌
##잠
##따
##뜻
##껀
##재
##족
##썩
##맹
##건
##꼬
##막
##핀
##벨
##레
##손
##뒌
##적
##닮
##위
##승
##없
##흥
##월
##험
##끼
##코
##찔
##습
##포
##ᆱ
##놨
##된
##죠
##팩
##력
##웟
##복
##권
##닌
##북
##경
##셨
##뚝
##왓
##용
##담
##왕
##켕
##렴
##례
##표
##삼
##쿨
##걱
##녀
##플
##축
##붙
##님
##순
##검
##량
##올
##꾸
##웠
##갯
##잎
##히
##근
##앙
##감
##체
##임
##엥
##폴
##증
##닐
##싸
##뒀
##립
##준
##익
##냥
##꽁
##박
##꼭
##질
##명
##쪄
##공
##렁
##쉐
##베
##끠
##워
##탕
##프
##염
##층
##며
##편
##께
##유
##숭
##뼈
##혀
##쾌
##외
##콰
##살
##밥
##후
##댕
##겨
##날
##틴
##젤
##떤
##찬
##낸
##젱
##핑
##뒈
##즈
##머
##뀔
##왁
##녠
##많
##랐
##덜
##겟
##벗
##덕
##놓
##럴
##벤
##묘
##톤
##놩
##ᆮ
##태
##창
##움
##판
##랙
##품
##갖
##끄
##낀
##극
##춘
##헤
##팀
##엠
##꿩
##골
##틀
##점
##씹
##엇
##잣
##좌
##석
##딥
##혔
##암
##초
##샀
##뎅
##온
##림
##균
##헙
##조
##쉬
##멘
##향
##픈
##넹
##겁
##토
##렵
##욱
##밧
##빙
##깝
##곱
##앵
##찮
##뢋
##렛
##짝
##객
##볍
##겸
##ᄏ
##룻
##곤
##과
##릿
##쒜
##떠
##앤
##똑
##합
##평
##팟
##뻤
##갑
##겐
##옻
##냉
##꼿
##럿
##징
##퓨
##측
##쿄
##알
##론
##룹
##엘
##봅
##취
##푸
##등
##않
##슬
##럽
##압
##킹
##쳤
##땡
##됫
##캐
##링
##냈
##센
##괜
##랗
##샌
##메
##ᄆ
##썼
##잼
##낫
##곽
##채
##엿
##ᆷ
##셧
##쫓
##득
##칩
##달
##섭
##믕
##ᄁ
##눈
##랭
##찐
##킨
##켰
##돌
##잡
##격
##릅
##쌘
##견
##싱
##샵
##숙
##썬
##넘
##딱
##듬
##뵈
##삘
##뢰
##색
##쌀
##껴
##희
##애
##둴
##퇴
##쩡
##댜
##블
##턴
##캔
##뜨
##냇
##녘
##응
##농
##궜
##환
##케
##쁘
##웨
##숲
##늘
##쓸
##컨
##롬
##렌
##협
##값
##팝
##믹
##텡
##갚
##붕
##섬
##퍽
##ᆫ
##ᄊ
##딸
##항
##완
##랩
##쁜
##싯
##쥐
##둠
##될
##잔
##ᄀ
##벼
##껜
##롱
##뽄
##뿐
##꿔
##련
##현
##얼
##총
##떵
##굼
##벵
##능
##흔
##첩
##촥
##ᄒ
##햇
##섰
##릭
##엌
##뜀
##갓
##짤
##끔
##쳔
##누
##폭
##ᆽ
##춰
##칫
##브
##샤
##눌
##찍
##낄
##널
##납
##댁
##헷
##팡
##셋
##딘
##멸
##콘
##겼
##겻
##씌
##쌤
##볶
##옷
##됩
##줜
##헨
##빌
##낼
##푼
##쩍
##졍
##똣
##빼
##김
##퀴
##넣
##낌
##댓
##슈
##션
##쇼
##뚤
##템
##답
##꼴
##텨
##숨
##넷
##넌
##뺏
##칠
##몇
##쫀
##쉽
##겡
##귀
##잘
##딪
##힌
##싶
##듭
##씽
##윗
##힘
##삶
##즙
##좋
##털
##툰
##줌
##돈
##웜
##쥬
##첨
##잉
##꽃
##칙
##ᆨ
##콩
##끗
##꼈
##슴
##탁
##헐
##냄
##컷
##첵
##숴
##듣
##뤠
##왈
##램
##혈
##댈
##슥
##흐
##큰
##앰
##윤
##흑
##덩
##붑
##롷
##또
##땄
##좁
##쁠
##탄
##킷
##빡
##탈
##논
##탠
##곳
##쎄
##옝
##몰
##웃
##델
##빤
##궤
##참
##쪼
##딨
##뚱
##얗
##칭
##뎀
##쑤
##닭
##꿈
##텼
##맸
##홀
##썡
##쭤
##젝
##흘
##클
##땝
##궂
##맞
##퉜
##멀
##컬
##겄
##줨
##릎
##훼
##펜
##뤄
##탓
##밌
##깍
##뻐
##둘
##촉
##뗀
##쪈
##젭
##숫
##룸
##픔
##즘
##랫
##폰
##땅
##숑
##뱀
##빴
##앉
##찻
##럭
##둔
##넬
##셤
##팅
##옛
##핵
##텅
##옥
##젓
##륵
##돔
##ᄂ
##졈
##됬
##밀
##확
##떈
##륜
##셜
##팜
##췄
##앚
##설
##잃
##툼
##솥
##싼
##쁨
##뜽
##끊
##눔
##챙
##곰
##랄
##냬
##킬
##쌩
##범
##꽝
##끌
##빨
##뭇
##웡
##훈
##슷
##뭉
##봣
##활
##ᄐ
##념
##짼
##톱
##쉑
##놧
##깁
##녕
##씰
##큐
##쳠
##웁
##갠
##씬
##뷔
##결
##핍
##롸
##묵
##엣
##빗
##겹
##찜
##뿌
##힐
##샘
##뀐
##최
##잇
##땜
##봥
##볏
##짚
##쪘
##퉁
##훅
##ᄉ
##ᄄ
##쾅
##먼
##닿
##쭉
##덤
##콜
##몬
##겅
##접
##졸
##맥
##놈
##딜
##톡
##걔
##뛰
##븐
##솜
##밟
##헹
##픽
##싫
##떄
##넛
##벙
##꼇
##랴
##찝
##핏
##낑
##짬
##뽕
##떻
##멤
##팍
##ᆸ
##욤
##튼
##펴
##앱
##썽
##쇄
##괴
##앴
##궈
##헉
##깥
##츰
##쌌
##멜
##렷
##멈
##댐
##좀
##깠
##떨
##솟
##궝
##굘
##휴
##얜
##뜩
##뷰
##룰
##밤
##꼽
##귤
##얹
##빔
##틱
##탱
##굽
##킴
##굿
##껑
##찼
##튬
##끈
##뀌
##룡
##씻
##첸
##랏
##텔
##냰
##긋
##툴
##튀
##쿡
##됭
##볕
##롭
##맙
##턱
##띡
##랍
##꼐
##ᄎ
##넉
##쳥
##닷
##콕
##짇
##듸
##탭
##둣
##봍
##껸
##쌸
##둿
##률
##깎
##앞
##묾
##늙
##휘
##밍
##혜
##폐
##빅
##옴
##갤
##칸
##뒤
##뚜
##뒛
##벅
##존
##깽
##찾
##므
##곧
##덧
##땔
##끓
##얀
##뮤
##ᆢ
##빽
##멋
##씁
##빛
##풍
##쌍
##쨌
##켭
##뜰
##톳
##꽤
##읽
##봄
##늬
##얘
##옹
##쭝
##쌈
##콧
##꺾
##챗
##컴
##즐
##셉
##촨
##멕
##렉
##깅
##룬
##롤
##켈
##쮸
##뻑
##꿍
##홍
##줏
##킵
##륙
##낵
##끝
##ᄌ
##퐁
##변
##믈
##펠
##봠
##걀
##ㅁ
##잌
##ㅣ
##ᄃ
##높
##깔
##쇠
##펄
##맣
##충
##륭
##쿤
##녹
##펙
##맜
##셀
##꼄
##똘
##붓
##촬
##햐
##략
##쳉
##샃
##뺀
##콥
##멩
##솝
##팽
##쩌
##됨
##묻
##뇨
##딴
##댔
##뽑
##쉰
##슐
##흠
##봬
##둑
##헝
##잤
##윅
##옆
##획
##닳
##냑
##왜
##꾹
##낍
##됀
##쯔
##쩔
##혹
##캄
##뜯
##탐
##깃
##꽂
##잿
##엎
##낟
##굔
##줫
##꿤
##낳
##귄
##윽
##쳑
##ᄍ
##싰
##띵
##팬
##빈
##젯
##찡
##숍
##갸
##낮
##굳
##껭
##삿
##돋
##긔
##햅
##싹
##뇌
##놘
##쌉
##썹
##쩬
##펼
##킁
##흙
##웹
##눅
##뻔
##섶
##춧
##찟
##튜
##쿵
##탰
##뜬
##컹
##쓴
##쭘
##웍
##벢
##둡
##켱
##솔
##뻘
##뻥
##뉴
##쏠
##썰
##쟀
##멧
##뵙
##렜
##푠
##렙
##낙
##짢
##죙
##펀
##냔
##켯
##컸
##꿀
##껏
##딧
##덮
##핫
##쓱
##뻣
##뇐
##촛
##큽
##챘
##뇽
##섣
##팠
##룽
##됑
##샐
##특
##꼉
##밑
##믿
##셈
##홈
##찹
##컥
##헥
##땃
##겆
##늄
##흡
##읜
##ᄋ
##갱
##봇
##쏴
##쫙
##빳
##썸
##ㅏ
##슛
##뿔
##ᆼ
##ㅇ
##웅
##틸
##돠
##밉
##쭐
##눙
##쟌
##냅
##칵
##깻
##밋
##닦
##멱
##폿
##죵
##캅
##얏
##롯
##넥
##묶
##뗑
##됄
##눗
##졋
##켠
##헴
##띄
##퉈
##ᄇ
##뜸
##둰
##롄
##잭
##곘
##즌
##늦
##ᄅ
##닫
##뉘
##윌
##툭
##춤
##푹
##넝
##뭔
##훤
##융
##춥
##읗
##쨍
##켬
##껌
##쫒
##퀘
##밸
##땨
##쾡
##뺐
##뱅
##셰
##뱉
##뎄
##혐
##욀
##촘
##줭
##긍
##쌓
##졘
##뱃
##뺑
##깰
##캉
##쉘
##짭
##젖
##녑
##킥
##삽
##뉸
##캘
##맵
##곁
##렬
##돕
##엤
##붇
##닊
##ᆰ
##맻
##듀
##쉴
##쎈
##짆
##늉
##껐
##짖
##낚
##슘
##걷
##톰
##빰
##쩐
##펑
##쏭
##꿨
##곹
##쫄
##웬
##ㄷ
##챠
##밲
##밴
##꼰
##뻬
##렘
##짹
##팎
##촹
##좔
##맘
##뺄
##픕
##렐
##붐
##닉
##뽀
##셩
##켓
##귈
##틔
##픠
##닙
##엑
##끕
##탔
##겊
##짠
##쫌
##탑
##싀
##쨰
##ᆲ
##ㅃ
##쌋
##짧
##몀
##쪙
##슝
##긁
##횐
##챈
##닛
##츄
##챦
##괘
##덥
##썅
##셍
##돗
##멓
##샛
##갗
##듼
##녯
##햑
##떳
##뿍
##츤
##웒
##쭌
##뻠
##뺵
##괄
##즉
##쟎
##맡
##깄
##ㅑ
##캡
##쇽
##얬
##앓
##놤
##삯
##윈
##옮
##듈
##쐐
##칲
##깼
##팥
##캥
##촤
##롼
##녱
##톨
##걍
##헛
##몄
##띤
##닏
##쨋
##샷
##묜
##팙
##숏
##튭
##뒐
##눕
##찢
##춀
##튓
##겔
##섀
##겋
##럤
##틉
##옇
##넫
##펫
##삥
##얇
##깬
##떴
##듦
##괭
##췀
##쬐
##꺽
##쥼
##텀
##폼
##뢍
##쿰
##큭
##쨜
##땠
##쩟
##땀
##낯
##떰
##쏘
##꺠
##뗐
##숩
##맺
##뎡
##숟
##앨
##갬
##뒹
##눵
##딀
##쑥
##딋
##뎐
##풋
##꾝
##벡
##훕
##탉
##귔
##펐
##넵
##찦
##밈
##팸
##덫
##흗
##쯕
##꼍
##랠
##깟
##귿
##좍
##뻿
##텁
##밷
##핡
##큘
##앳
##왼
##쌕
##얍
##뮌
##깜
##넙
##헸
##ㄱ
##쟝
##웝
##ㄴ
##끽
##헀
##챤
##쌔
##춴
##쟈
##읃
##ㅍ
##얄
##괐
##ㅛ
##ㅓ
##뽁
##읠
##늑
##팁
##챔
##퉤
##릏
##뀝
##샥
##텸
##끤
##틈
##짯
##쵸
##꼳
##샹
##젔
##욜
##쒕
##펌
##딤
##벰
##쒀
##꾀
##쩜
##뭄
##얌
##쳣
##홧
##밝
##퀸
##잽
##꿧
##젹
##짰
##놉
##룐
##잊
##꿰
##갛
##샅
##뚫
##굉
##뛸
##쿼
##췌
##훌
##켐
##핥
##잫
##쁩
##텽
##쫏
##됏
##괙
##윙
##겉
##ᇀ
##녓
##뉜
##잴
##됌
##쐬
##쩧
##ㅎ
##끙
##섞
##쪗
##꿉
##ᄑ
##펭
##옙
##뎃
##뼘
##넴
##뻗
##넓
##얕
##쉔
##쥔
##맴
##빱
##쨈
##냘
##뮬
##궐
##싓
##텍
##콴
##펏
##칟
##뢈
##흰
##륨
##휙
##얶
##깩
##낡
##웩
##앎
##떱
##캠
##ᆡ
##엡
##힙
##뵘
##쌜
##둼
##떽
##넜
##깊
##첼
##쑨
##첬
##둤
##븨
##껫
##튈
##ㅌ
##퀄
##껕
##쿱
##헬
##훗
##믓
##뾰
##쟨
##셴
##곈
##땟
##읏
##믐
##띔
##뽠
##뿜
##퀵
##믜
##탬
##꽉
##콸
##뼜
##맬
##쫑
##뚞
##뷸
##쪔
##쯧
##뒬
##횄
##윳
##긂
##퇘
##쉼
##붉
##뎠
##욘
##랳
##쉈
##샴
##탸
##쎕
##쌱
##썻
##뵌
##랖
##뵀
##텝
##젬
##룔
##샜
##헿
##덱
##캇
##젊
##훑
##솎
##쎴
##븟
##뼁
##쩨
##뵤
##볐
##혠
##꺆
##뒝
##쏙
##낱
##뿡
##및
##삣
##ㅗ
##뭅
##덖
##촙
##폈
##댑
##짔
##딲
##쟤
##벚
##뛴
##뤌
##횟
##떙
##얻
##셌
##텄
##뎜
##삑
##벛
##ㄹ
##돵
##촞
##욋
##쒹
##ㅐ
##첫
##쎙
##궅
##헵
##꿘
##뽓
##숯
##혓
##궘
##췅
##휠
##굲
##갼
##륄
##샾
##볔
##갰
##늠
##뺼
##틍
##꽅
##먄
##윷
##ㅅ
##힛
##쪾
##뼌
##몫
##꽜
##쯘
##붸
##꿴
##샨
##퀀
##텃
##뼛
##섹
##쨴
##졩
##맷
##뎨
##띨
##뤼
##똔
##밨
##럈
##볓
##짞
##귑
##뽈
##솰
##맑
##딛
##뇠
##뚯
##괸
##딕
##곌
##슌
##먈
##싣
##ㅆ
##ㅠ
##홥
##낕
##븡
##쳇
##눼
##옄
##뒨
##뵐
##읻
##꽌
##쩝
##퀼
##뺴
##퀜
##셸
##멥
##쑈
##ㅊ
##ᇁ
##곗
##빝
##뚸
##쥴
##좆
##춛
##캭
##뺸
##쎠
##겯
##욌
##빻
##쌰
##탤
##샬
##ㅂ
##꿇
##돟
##핼
##뮈
##껬
##솓
##뫼
##쉉
##꼅
##삔
##츈
##엊
##폔
##겍
##굵
##틋
##옸
##뗘
##빘
##덞
##썜
##챌
##캣
##닸
##빚
##뢀
##덯
##겝
##홰
##읔
##잆
##켔
##뜹
##깉
##룝
##폄
##텬
##횡
##몃
##솨
##윰
##둚
##솽
##ㅔ
##텉
##앝
##씼
##삠
##읒
##됙
##팰
##욥
##룍
##빕
##흣
##뽂
##뵝
##뙨
##횔
##긘
##뷁
##씜
##젰
##읕
##믑
##힉
##쭙
##꽥
##촷
##봑
##웄
##턘
##걵
##볌
##닯
##꿋
##쁫
##ㅡ
##숱
##윱
##얐
##끋
##겜
##뭡
##톼
##뼝
##츨
##뻮
##뭘
##훙
##꺄
##췃
##쐉
##휼
##랸
##뒸
##챱
##갇
##훔
##렫
##죤
##넸
##뭍
##궨
##녂
##슭
##럇
##젚
##뢌
##쐼
##ᅟ
##뱄
##뙈
##벱
##캑
##뒙
##멨
##힝
##먀
##ㅕ
##겪
##슉
##텟
##읫
##쎂
##홋
##옐
##툽
##뤳
##긱
##렿
##핌
##햔
##뗗
##뙤
##볖
##귐
##꾕
##튿
##ᆌ
##촴
##웽
##씅
##횹
##믠
##쌂
##뒷
##숄
##딫
##눤
##쁑
##냠
##덷
##듐
##쉭
##쎼
##뒘
##밪
##갭
##뤂
##픙
##쩽
##싕
##왑
##뚼
##탯
##벴
##릐
##졉
##ᅧ
##ᇦ
##큿
##뭣
##늗
##몹
##꾄
##켁
##꺅
##앜
##틘
##뼉
##ᅡ
##뤈
##궹
##놯
##궃
##찕
##븝
##뎁
##뾱
##왰
##녈
##땁
##냤
##캬
##흩
##좡
##빾
##뵜
##귁
##ᆾ
##엾
##쎔
##튠
##큔
##쳘
##낏
##륩
##렄
##겧
##꽛
##댸
##윔
##쏩
##엏
##핰
##뚠
##멎
##쎡
##뤡
##횝
##틑
##쏜
##쩠
##놥
##쉄
##섦
##뭥
##ᅥ
##쏨
##깞
##뗭
##뀨
##럔
##딍
##슁
##띌
##숀
##똩
##햤
##풉
##쏱
##훠
##몺
##뗄
##뿅
##맒
##뗴
##눳
##흫
##몆
##꽹
##쫜
##얭
##굶
##죈
##뭏
##콱
##꽐
##갋
##삵
##뗌
##꺁
##썍
##쎌
##몐
##늡
##곙
##웻
##좃
##솼
##햿
##껨
##덨
##궛
##ᆩ
##쏼
##왱
##삡
##떔
##맽
##싿
##홑
##뽜
##맄
##쥘
##뤔
##쨔
##곺
##쩃
##횬
##ㅈ
##멶
##췻
##휸
##쥰
##껱
##뽐
##햬
##ᆦ
##켤
##봈
##괌
##쫇
##엍
##쯩
##곯
##죡
##뀠
##끳
##긧
##뛍
##팼
##툿
##ᇕ
##봡
##헣
##캩
##팊
##긷
##닺
##젛
##챃
##떫
##젋
##툐
##핬
##잦
##뉩
##렽
##먕
##왝
##옜
##젆
##쉿
##뇸
##횽
##쎵
##쒔
##똠
##둽
##쫍
##젇
##쒝
##귓
##퓸
##끎
##샙
##뻈
##찧
##큄
##샆
##옅
##췹
##ᅳ
##쒠
##ᅌ
##줩
##닪
##옣
##웸
##꿎
##캤
##갷
##맏
##흴
##휀
##롔
##륀
##봒
##퐅
##쒯
##랃
##쩅
##됍
##뺘
##휭
##묠
##왠
##칞
##뤙
##떢
##뇬
##솖
##컫
##귾
##꺨
##핻
##퀭
##깹
##쐅
##푤
##맀
##낋
##첮
##ㅝ
##룟
##쭃
##쏵
##쎘
##뻴
##쯪
##챕
##쾍
##줴
##핧
##퉌
##둗
##벋
##곬
##앍
##늰
##쉣
##햫
##땍
##쌨
##튤
##뇰
##슾
##훍
##쇵
##풂
##숸
##꿕
##쫘
##챵
##셥
##뚬
##렃
##ㅋ
##샋
##닢
##ᄈ
##롈
##썌
##쏸
##줐
##얒
##쒸
##뱁
##궥
##퇑
##봘
##낣
##폽
##젲
##큅
##쇅
##랟
##춚
##띈
##짺
##ㄲ
##슽
##읖
##뺍
##쌥
##띰
##벘
##쇤
##뜁
##펩
##뭬
##튄
##킄
##뷴
##믾
##쑉
##숼
##돴
##뉵
##헠
##뺨
##ㆍ
##쒄
##넽
##곀
##풰
##좐
##껙
##쨎
##켝
##뼤
##붊
##굣
##펨
##꽘
##싄
##먜
##뗏
##뛌
##튕
##뗸
##짲
##틷
##몯
##묭
##팹
##촸
##좇
##씪
##늕
##돤
##쩄
##닞
##랔
##휏
##벆
##닜
##퇀
##쑷
##굥
##꼔
##ㅘ
##왬
##뉠
##껗
##쩻
##멫
##쨑
##훨
##뻉
##챳
##벧
##믯
##얃
##맇
##줙
##맿
##읓
##앟
##긇
##돳
##엃
##쥣
##뻭
##앋
##쑬
##덛
##얫
##ᅨ
##렾
##뻰
##굑
##넁
##싲
##둭
##ᇇ
##욧
##꿱
##푀
##줟
##덣
##놑
##죅
##옫
##휩
##곻
##퓽
##띃
##롥
##풔
##컁
##댷
##ᆉ
##픤
##쏟
##꾁
##꿸
##쩀
##팻
##껠
##껵
##댱
##궙
##옉
##쌴
##팤
##ᅵ
##ᇐ
##꾜
##홱
##헜
##갹
##ᅢ
##킸
##댇
##쐴
##쩼
##롶
##짊
##깸
##맆
##돛
##뭤
##갂
##쨸
##넿
##깢
##졀
##ᄕ
##괏
##읊
##뎬
##솦
##눰
##쨩
##꾿
##팓
##쬔
##췰
##귝
##쟹
##붼
##퇸
##꽨
##븍
##쎅
##쑀
##됮
##봰
##읶
##ᅙ
##퇏
##췬
##팦
##떘
##늪
##뽝
##끅
##껩
##쿳
##섄
##줒
##퉝
##쑁
##깧
##띱
##ᇢ
##껟
##졔
##니까
아니
##렇게
##는데
우리
진짜
근데
그래
이름
그런
이제
그냥
그거
##지고
사람
##잖아
그러
이렇게
##에서
##라고
그렇게
내가
그래서
아이
##으로
거기
##다고
맞아
##가지고
너무
##거든
##하고
이거
나는
하면
생각
지금
하는
##들이
많이
##으면
그때
들어
하고
약간
해서
##한테
##하는
그러니까
##다가
있어
이런
좋아
나도
완전
##리고
그런데
##하면
여기
그게
제주
어디
하나
같은
##신디
가지고
옛날
그니까
얘기
##까지
있는
##해서
자기
##었어
엄마
##에는
언니
어떻
모르
##는거
거야
어떻게
하니까
그러면
먹어
것도
아이고
그럼
없어
##머니
##니깐
그리고
##구나
해야
무슨
제주도
##것도
##들은
저기
##음에
##면서
##으니까
알아
이름이
##려고
##하게
사람이
가서
이게
##면은
친구
같아
있잖아
엄청
##이라
조금
##더라
같이
##부터
##어서
아무
먹고
##니다
뭔가
요즘
시간
그렇
있고
계속
그걸
하면서
좋은
나오
나가
##겠다
##지만
원래
다른
##더라고
몰라
했는데
그래도
한번
맛있
##었는데
##학교
그건
게난
##인데
되게
##주게
얼마
##번에
##아서
##인가
##하지
사람들
##이랑
왜냐
##이야
여자
남자
하지
만들
어떤
아니고
오늘
보면
##지는
거지
정도
##다는
아니야
오빠
맨날
##문에
학교
닮아
하는데
제일
거의
우리가
했어
집에
괜찮
그것도
##자기
아빠
##이나
어떵
##부난
이젠
다음에
들어가
있었
##야지
거기서
아닌
너네
##았어
때는
##겠어
기억
갑자기
##지도
보고
처음
되는
때문에
해도
힘들
뭐냐
##기도
##이고
선생
아까
##거야
않아
누구
##이가
있네
##중에
다니
있는데
돌아
가고
사람들이
##리가
##수다
올라
##보다
##이라고
먹을
##리는
혼자
거라
일단
그랬
공부
아니라
같애
보니까
애기
옛날에
이러
갔다
해가지고
어머니
솔직
애들
##보고
결혼
다시
##ᆞᆯ
가면
##로나
아직
솔직히
선생님
##처럼
살아
나와
##던데
빨리
##했어
##에도
먹는
전화
느낌
다음
있을
코로나
별로
만나
나중에
있지
##버지
##이지
가는
우리는
할머니
거는
##하니까
나한테
많아
바로
이상
말해
##가지
##대로
그것
물어
##겠지
##기는
말고
##세요
서울
이십
##등학교
내려
아니면
너가
수도
이서
ᄒᆞ
언제
##기가
재미
##해도
운동
##들도
##이는
##이네
##하다
말이
##습니다
여행
와서
##거라
없는
##그네
머리
가져
##냐고
그치
전에
되고
같은데
오래
재밌
정말
뭐지
##주고
왜냐하면
##라도
마음
밖에
##적으로
싫어
있으면
##해야
나왔
싶은
보내
시작
알바
그거는
나이
아예
없고
사진
##어요
안되
먹었
끝나
아주
이번에
##마씨
어느
어제
아침
집에서
누가
이제는
하루
영화
##그넹
얼마나
어쨌
그런거
가지
그렇지
일본
사람은
받아
##거나
학년
동네
##마다
잘도
먹으
##밖에
뭐라고
자기가
음식
되는데
싶어
어쨌든
##어나
거난
똑같
##요일
생각해
얼굴
##이면
엄마가
필요
##으네
만약
##님이
어서
때도
그럴
이건
되지
이름가
육지
우린
말을
문제
사는
너는
##려서
삼십
노래
##근에
##버리
아들
건데
##었거든
그거를
##었지
애들이
##이다
소리
떨어
##라는
알지
요새
보여
비싸
했지
그래가지고
나랑
옆에
좋아해
한국
사람들은
먹으면
##어가
##하면서
나온
##을까
그때는
##는지
##는디
걔네
무사
많은
왜냐면
##보면
가야
다섯
해신디
##주는
##이니까
하는거
아이들
##하는데
무서
병원
생각이
시험
##어야
지금은
알고
보리
하면은
그다
하다가
되면
만약에
아파
하잖아
먼저
##습니까
안해
뭐야
우리도
있으니까
여기서
가이
##만큼
##에요
뭐가
아는
지나
##만원
이번
겨울
안돼
중국
걔가
##조건
##했는데
항상
만들어
맞지
동생
무조건
##적인
하여
연락
한데
사실
거고
생각을
##보니까
찾아
모르겠
##스크
##어도
아프
##았는데
동안
##리를
##는게
##심히
사투
##었던
일이
##워서
식으로
보통
되니까
어멍
옛날에는
수가
스타
아버지
어릴
걸로
자꾸
##아버지
주고
있거든
집이
##기로
##사람
열심히
##인지
내일
사고
혹시
작은
건강
언니가
봤어
##라서
이런거
사람도
있었어
고등학교
당연
경허
##가지구
##지가
무신
절대
처음에
오십
갔는데
돌아가
신기
##마씸
##부러
달라
잘못
##장이
놓고
##겠다고
##거지
##이라도
여름
저녁
##수과
사이
말했
걱정
보는
재미있
저거
##크라
##만은
화장
##한데
##가서
##전에
앞에
핸드
모르겠어
에이
거기에
하다
갖고
##추룩
이걸
미안
##시간
했던
드라
한다
중요
둘이
좋아하는
것이
위에
##끼리
거기는
말하는
##친구
##에서는
나무
##기를
어려
이것
대학
해주
있다
아이구
준비
얘기를
핸드폰
##였어
못해
따로
뭐라
##이이
이름도
다녀
저번에
잡아
그걸로
잠깐
나오는
##놓고
##한거
쓰고
닮은
하여튼
타고
아마
돈이
##잖아요
이미
하게
유명
아유
맛있어
지금도
몰랐
게임
비슷
##가는
버스
안에
##건데
하난
제사
##인이
시켜
##구마
그만
여러
가게
다르
중에
허난
하영
##들을
말이야
중간
어어
않고
##수가
하더라고
키우
이해
이모
서귀
하멍
말하
해야지
너도
힘들어
겅해
싶다
이거는
##는거야
아닌가
일어나
마스크
거를
요즘은
세상
얘가
스타일
아무튼
이름는
부모
중학교
##더니
##리면
##예요
기다
오는
어른
자리
여섯
돈을
카페
##여서
들어오
배우
자기네
했거든
확실
쓰는
그러니깐
사투리
사십
##신가
##렸어
##봤어
기분
그니깐
허멍
초등학교
있었는데
아방
서귀포
오고
가끔
냄새
##시는
##가면
##와서
회사
아닌데
##있어
드라마
할아버지
마지
가족
없지
한다고
어차
수업
남편
고기
어차피
만원
##에서도
오면
##그냉
프로
아침에
서로
##아니
하더라
시간이
고구마
봤는데
어디서
들고
대박
마지막
하나도
##은거
##스타
허는
##정도
맞는
괜찮아
그다음에
말도
##가고
졸업
아빠가
성격
알았
안하고
맛이
아아
이시
자체
데려
##한다
김치
##년에
바다
없이
좋다
##은데
있어서
이것도
건가
##시에
커피
일을
경우
아직도
##이잖아
장난
우리집
학원
교수
따라
군대
어린
다녔
##자가
##냐면
##지면
않았
보난
##먹고
친구가
##해가지고
##하잖아
안나
겅허
그저
대해서
영어
있어야
##기고
정신
없는데
할망
하니깐
##이었
모든
##있는
##사가
무시
아니지
없으니까
##드는
살았
##하네
##자고
##지를
그날
입고
했잖아
##레스
그디
##까지는
알았어
그러게
좋지
스트
##하기
ᄒᆞᆫ
갔어
외국
명이
생활
##다니
이천
했었
이야
허고
올해
##이어
저는
##아이
##에다가
어쩔
이유
모양
옛날엔
##겠네
있다고
##래도
##리도
된다
상황
##하난
예쁘
보면은
나라
거기가
되잖아
왔다
##시고
살고
##디다
##으면서
거니까
잘해
사랑
겅행
걔는
##라이
뭔지
존나
누나
기억이
운전
주는
ᄀᆞ
때가
밑에
나서
선물
제가
하긴
살짝
##버려
않을까
##나서
되나
먹었어
거기도
일곱
애가
아이가
신경
##갖고
##장에
그러고
시에
그쪽
다들
고민
부르
오빠가
##우다
뒤에
##리지
새로
우리나
##져서
때부터
상관
##히려
좋을
##줘야
갔을
요번에
한라
오히려
받고
확실히
##지게
가니까
없어서
스물
##들이랑
##사를
주소
보면서
넘어
아홉
좋고
있어요
사름
했을
느낌이
시키
##했던
##때는
##아지
다닐
봐야
바람
해봐
짜증
##만히
굳이
많고
선생님이
나올
##아야
비행
먹어야
학생
나오고
##거리
하거든
크게
없다
##장님
고양
일주
거잖아
아무것도
결국
이름랑
된다고
고생
이름이랑
##가루
주변
해보
생겼
##마는
죽어
당연히
새끼
봐봐
넣고
암튼
미국
##한다고
나를
놀러
##했지
앉아
이름이가
진짜로
알아서
이러면서
데가
육십
있나
깜짝
모르는
다행
먹지
##라리
불러
새벽
대한
시어
##인디
없잖아
##리스
않애
어떡
아기
이래
아우
##하는거
##어가지고
##운데
##허고
좋았
인정
일주일
하려고
관광
가르
점심
친구들
색깔
스트레스
##이크
##었다
듣고
차라리
궁금
아저
##하다가
##저께
얘네
##소리
맞어
올려
개월
걸어
그땐
대단
##신게
##이도
##든지
##졌어
가까
자식
시집
웃겨
놔두
그런가
마음이
챙겨
왔어
관심
##학생
여기는
금방
녹음
그러면은
아저씨
말은
하기
나쁘
받았
아휴
##하거든
어쩌
##러워
##이랜
것만
##나무
그래가지구
못하고
언니는
여덟
없을
돼지
그렇고
일찍
##보다는
맞아요
부산
십이
기본
귀찮
##오고
얘기해
화장실
##르고
다니고
그추룩
만든
들어서
무서워
교육
팔아
봤을
좋은데
비싼
없었
보이
##대가
생일
##만한
기억나
연애
인생
그지
##지만은
어저께
##다니까
끝나고
젊은
가면은
가만히
##하다고
##하긴
##스트
해야되
이상한
달에
아이들이
대학교
##리에
##먹어
##기만
종류
적이
올라가
먹은
자연
이름은
기름
수술
허민
말라고
##자마
가도
아냐
같고
##방이
우리나라
호끔
배고
그것이
##력이
되는거
##려면
##렸을
아래
##들어
헤어
싶은데
예를
제주도는
최고
맛있는
귀여
모르고
어머니가
삼촌
식당
##수도
못하
와가지고
만났
##으러
벌써
자기는
제주도에
##치는
##자마자
대화
이신디
##드라
늦게
갈아
개인
교회
기도
축구
##에스
니가
##건디
힘든
생각나
바뀌
거라고
사람들도
##가락
취미
야이
있언
##이여
밭에
##기에
모르겠는데
먹으러
순간
경해
농사
##학년
부분
하도
사람을
가가지고
않은
나만
##느냐
예전에
완전히
사라
칠십
##이거든
같다
상태
움직
근디
봐도
그런게
보다
##이라는
할거
인스타
##으니깐
애들은
물어보
받는
##하나
맞춰
내용
##건가
다니는
##지지
치킨
번도
닮은디
##들한테
##장을
아픈
자주
얘는
##지어
큰일
엄마는
같아요
생긴
만드는
불편
아니냐
건디
##같이
##시난
중간에
미리
##주면
아무리
하네
##였지
하나씩
감자
##이트
##쪽으로
##였는데
##라게
쪽에
##버리니까
카톡
것들
##이라서
이름한테
밤에
한거
때마다
인터
어머
어렵
아들이
허여
##었잖아
##무원
했었어
자체가
말로
##쪽에
일부러
##오는
없었어
##는거라
아무래도
가자
##수다게
따뜻
들어갔
허영
##버렸
##동안
그러면서
조심
버리
팔십
정도로
생각하면
내년
##었을
이백
청소
행복
##합니다
요즘에
시청
##스가
있긴
##다이
눈이
느껴
도와
바꿔
지가
그렇게해서
생각도
없으면
아무도
며칠
하지만
똑같은
마을
있는거
말하면
하는게
##쿠다
##보난
갖다
심지어
##고기
다리
조용
됐어
신랑
겐디
메밀
비행기
##정이
강아지
검사
나쁜
주제
##언니
갔다가
너한테
하라고
했네
라면
스무
느끼
오천
앞으로
##봤는데
잊어
그다음
남자친구
##요일날
영상
하루에
이만
키로
##ᆞᆷ
그자
점점
배달
##입니다
이후
##식으로
##겠습니다
먹언
하는디
신청
날씨
이랬
엄마한테
그렇구나
사회
##시면
어렸을
주말
##스럽
쪽으로
게메
##봐야
아이들은
##짜리
받을
작년
찍어
에스
밥을
그대로
오름
파는
##었나
말씀
##케이
##물이
##하러
소금
싸우
먹어도
가격
##되고
겁나
일어
##되는
않을
십일
유투
##버린
데리고
매일
알려
오랜
무엇
물론
라고
무시거
했다
집안
안가
##ᄒᆞ
시어머니
게믄
웃긴
너랑
왔는데
말할
뭔데
그랬는데
기계
일도
##듯이
맞다
##걸로
##길래
지내
##만에
처음에는
티비
안된
일반
난리
특히
있다가
생기
##고이
ᄆᆞᆯ
놔서
오늘은
좋겠다
가기
##르는
ᄀᆞᆯ
##버리면
형님
걸려
들어간
담배
직장
##에게
할까
##이로
카드
피부
호텔
해요
몸이
##성이
##여행
위험
##버리고
않나
다이어
있었거든
제대
중요한
경험
사서
거에
##갔다
반찬
되어
빼고
옆에서
제주도에서
경행
않았어
##치고
나와서
##오면
여자친구
손님
##했다
데는
교수님
없네
어우
된장
##는거지
저렇게
쓰레
##었네
직접
제대로
##랜드
다음날
가는데
나고
##원이
신고
계란
때까지
차가
무섭
자고
하던데
##으면은
옛날은
이디
할머니가
##던가
크리스
지네
이유가
집은
계획
이러고
물이
오일
했다고
해줘
고모
그거에
공무원
돈도
보러
고양이
에어
잘생
위해서
죽을
마찬
##치가
##했을
며느
웃기
넘어가
아니다
이거를
고사
오지
이신
거예요
전혀
맞네
까지
##같은
서방
대신
한테
고라
우와
##시켜
예전
두번
##신이
고등
깨끗
않는
가신디
수학
재밌어
자격
##었고
##인거
이사
보기
두개
##텐데
주인
##나게
여기가
그나
##던거
한라산
누군
귀엽
해외
모자
빠져
출근
하믄
##든가
나이가
##으려고
앉아서
바꾸
말한
분위
인터넷
게민
없다고
마라
나눠
못하는
##해요
제주시
그때도
##만이
잘하는
신발
##아리
오백
거랑
가난
방법
##마씀
다이어트
보험
되겠다
말라
소개
##스로
굉장
빌려
좋다고
전부
##분이
응응
##볼까
미친
아버
앞에서
사람한테
가능
담아
이쁘
##시믄
모르겐
미깡
뭐랜
##생활
어이
연습
여자가
연예
##러운
넣어
##때도
버려
##마스
##났어
##주만은
##어져
하자
생겨
##적이
제주어
줘야
##레이
친정
똑같이
케이
관리
##허게
열두
했나
##사는
받은
굉장히
알안
겅해도
##불고
차이
유명한
말아
##상이
많았
##할거
이야기
아줌
했었는데
##더라고요
설명
추워
구경
수능
추천
당시
워낙
주로
할려고
##네요
나오면
예쁜
해보고
어때
오라
지역
해봤
생각하는
가을
많지
주면
가장
그림
괜히
수영
##에만
잔치
##버렸어
그때부터
경허난
##수게
어울
피곤
답답
크리스마스
눈치
조금씩
##식이
예뻐
그것만
공부를
사귀
거면
##없이
아파트
불쌍
가방
삼춘
음악
##먹는
사촌
##했거든
같긴
경찰
남아
##동생
학교에서
아버지가
아닐
##부런
유투브
##비가
끓여
십오
친해
엄마도
조금만
잠깐만
월급
바당
겨울에
분명
나름
##로는
##왔어
들어가서
##우스
간호
좋게
하르
진짜이
감사
나갔
만날
오케이
생각보다
이름아
양념
취업
##있고
만들어서
편의
이만큼
저녁에
이름네
마찬가지
이불
모르겠다
예약
아줌마
번씩
마리
먹어서
건물
올리
그리
키워
보니깐
물에
딱히
언니네
##드라고
훨씬
그나마
부모님
서른
거네
사업
##퓨터
##가가
ᄆᆞ
입장
##이를
먹었는데
##우고
번째
말야
데서
컴퓨터
##되면
마늘
있었던
친구랑
자격증
가져가
가이가
구십
##허여
결혼식
만난
아니잖아
만들고
나갈
##었다고
방송
사주
들었어
전기
원래는
들어가면
봐서
속에
##집이
들어가는
나보고
삼백
남자가
##하려고
병원에
정리
택시
일단은
##달라고
##겠지만
문제가
잡고
작년에
여름에
대로
보이는
에서
아닙
편의점
##다리
중앙
##시냐
있어가지고
골아
거긴
건지
공항
집을
나면
안좋
##감이
물어봐
##마트
마트
##없어
##하면은
분이
맥주
인제
빨간
괜찮은
니네
듣는
문화
하나만
저번
했어요
대충
손으로
매우
해가
##게요
##ᄊᆞᆯ
확인
##맞아
##이영
언니도
그랬어
배워
들어갈
충격
있대
추억
##웠어
같지
선배
지원
머리가
오니까
으응
이녁
##명이
어신
끝나면
모두
한번도
##말로
걔도
##보단
그난
요리
##지니까
##하멍
##머리
요새는
최근에
떡볶
생각하고
만큼
##한게
이틀
돌려
벌어
인사
##으난
##장도
정확
거짓
사야
나중
도시
가이네
들어와
##나고
엄마랑
나왔어
갔지
있잖아요
헬스
고치
##원도
합니까
검은
나보다
처음엔
노력
세상에
마당
쓰레기
의미
해부난
할수
안하
##보는
##말이
나머
##레비
돼요
것들이
허믄
기다려
써야
많은데
이름이는
초반
쪼끔
가보고
장사
##자는
고맙
##해져
선택
##장은
##겠어요
해라
모르지
간다고
살이
유럽
모아
주문
너희
몸에
해녀
예예
##오름
직업
##으라고
단계
##버려서
귀여워
약속
ᄉᆞ
삼천
생각은
성님
꺼내
돼서
모임
##라면
동물
마시
##심이
시간에
##까봐
##지로
##나봐
방에
처럼
될거
해줄
##던디
입어
맛인
##실에
애들도
나쁘지
명절
토익
연예인
지나가
들었
##두고
##간에
들은
인가
##치기
도망
안에서
똑똑
합니다
저런
보지
친한
돌아다니
은근
저도
바쁘
##신고
기지
먹으니까
간다
놀고
그러지
것처럼
##저것
##집에
없어요
누게
딸이
붙어
해그넹
##학과
잘라
맛좋
조그
찍고
된대
##하믄
##하더라
##도가
끊어
일은
##쳐서
말하고
##시키
비슷한
그래야
##이었어
짜증나
애기들
기숙
##원에
집도
면접
인간
직원
##했네
##을거
어려워
일년
이것저것
데도
학기
##로도
날은
들려
##이래
구워
해주고
무서운
멋있
확진
요거
주변에
식구
막상
##자를
##대에
생선
의사
멀리
했으면
걸린
##했다고
하나님
오빠는
##장님이
편안
허리
이때
있어도
풀어
보냈
아니라고
정도는
둘째
##아가
##허난
많아서
##였거든
시간을
가라
하니
되네
##줬어
근처
포기
쉽게
지난
##국수
남자애
하는거야
아빠는
냉장
한참
고추
싶지
##대는
이러니까
계산
##사님
그만큼
번은
보믄
세계
##그램
부터
지하
놀아
마음에
엇어
##프로
걸리
연결
좋아하고
싶어서
목욕
수는
죽은
모습
밥도
좋은거
치고
유튜
거짓말
년도
바닷
달라고
##수록
소문
##겠는데
##말고
했고
가보
행으네
##제로
##한테도
역시
나가서
오만
관련
사장님
이해가
한대
있었지
고사리
봤지
후회
상대
##헌디
어찌
자신
만나서
넣어서
그거랑
먹는데
열한
표준
##지에
##방에
##ᄀᆞ
좋아하
물을
##당히
이제야
##르면
호꼼
##건지
그래요
도로
##이브
뭐하
있구나
해그네
돈은
##이긴
##을때
끝났
##다게
##거든요
끝난
나아
와이
내고
뛰어
##잖아예
##네가
##정을
부담
##까진
끼고
##부니까
드는
막내
맞추
##부가
##장에서
여기도
검색
하얀
놓는
스토
여자애
있었고
##하라고
아니에요
아니면은
치즈
군데
맞수다
##갔어
고마
##였나
쇼핑
##이터
그때가
체육
통화
어떡해
근육
나의
이어
##해신디
##스를
떨어져
가야지
냉장고
넷플
배추
소리가
자기도
나간
##일이
좋긴
##이서
가루
자랑
싶고
##수를
얼굴이
십만
특별
##디가
전복
물건
##허는
만나고
어려운
이따
##면이
우리한테
붙여
우유
##기름
게도
놀랐
당근
알았는데
바빠
##관이
##나는
받아서
빙떡
##라인
##이난
가운데
##있는데
모를
신기해
새로운
주차
그렇다고
안되고
##식을
##새기
있던
형제
사다
다니면서
개가
틀려
성격이
##우니까
멸치
호박
것은
##노난
검질
미역
안먹
##리아
아이는
집중
##았지
놓은
아부
자동
그릇
남은
##도로
요즘에는
##점이
되거든
안보
한림
시절
##도이
노는
가시
봐신디
놓으면
많으니까
년에
새벽에
어딘
틀어
친구들이
내년에
아닙니까
거리
##우면
남의
됐는데
빨래
같은거
눈물
모른
##나신디
쳐다
어느정도
몰랐어
가졍
누워
##었어요
날이
낫지
버리고
사건
합격
감저
돈으로
있게
사이에
##러스
가르쳐
시원
오라고
하르방
당신
술을
얘기하는
언니랑
뭐해
##스럽게
사무
정도면
구멍
바지
택배
##부분
가봤
나가는
그분
##이란
살면서
평생
겅허난
봤거든
자유
##없는
시끄
알겠어
본인
조카
기숙사
##할때
##로만
가려고
시까지
옷을
##소에
해준
나완
추석
하당
하하
뒤집
많잖아
맛집
맞고
있을까
가이는
##않아
##우꽈
애들이랑
같기도
이런게
두드
쓰면
##아가지고
부자
##달에
##자리
그러다가
##부터는
방학
##때문에
들어온
하겠다
말했어
보는데
같아서
나는데
했었거든
지도
##을걸
며느리
이쪽
얘기하고
처음부터
##드가
##야되
웹툰
이시난
유행
제발
##둥이
제주도가
부엌
이럴
전문
##바로
서울에
거다
소주
어린이
고무
동생이
밖에서
##스터
뭐냐면
무릎
국물
쉬는
눈에
바퀴
한시간
열어
보라
우선
좋았어
##트가
매운
표현
사과
얘기하
##들만
과일
부지
각시
삼성
저희
활동
아니아니
해영
광고
몰라도
싫어해
안녕
##어를
바닥
위로
싫은
이름을
라는
반대
먹엉
##신지
일하는
못할
##이에
이제까지
관광객
일요일
읽어
하늘
치료
##구요
##이름
뉴스
##간이
되는디
아님
##초에
미쳤
않으
한마
다닌
동그
##해야지
애매
퇴근
##줄게
##시오
심해
여유
##이냐
끝까지
불안
거거든
기회
가슴
소름
잇어
토요일
좋아서
운동을
다이
달려
기대
기분이
자취
기준
만화
후에
괜찮은데
##은이
유튜브
노트
환경
##았다
##카부
안경
과제
##우는
살아야
심각
서울에서
남편이
때만
나오지
않으면
딱딱
연기
##생이
있댄
모여
여기에
골프
있지만
목표
##했잖아
##주지
있으
할꺼
##자도
그러는
가믄
부족
뭐니
어깨
하냐
있더라고
근무
해주는
##하세요
##들끼리
지금까지
작아
친척
먹었지
뽑아
나가고
내려가
어디가
불렀
현실
일로
##같아
다음주
이름언니
아깝
취소
몇번
될지
촌에
몰란
##오십
왜냐면은
ᄀᆞᆯ아
떡볶이
하나는
거래
아니니까
모르니까
높은
대답
말만
용돈
공기
샀어
말하지
어신디
돼지고
근데이
없어가지고
영양
일주일에
##주기
들어가고
여긴
무신거
유치
##나면
올레
족은
쓰지
신기하다
보일
강의
거냐
있더라
국민
기구나
까먹
전에는
배가
좋겠어
죽는
간단
팔고
고르
심심
전체
시켰
노형
아쉬
갈치
도움
##질이
번호
##겠냐
##주세요
포장
아니꽈
가정
차를
헤영
할때
##진거
허지
사용
##사도
잘하고
##이구나
댕기
해줬
들면
관심이
그렇긴
경우는
바이
오빠랑
##은에
뭐하고
싸게
대가
잃어
주식
해여
한디
##병원
거구나
##월에
이러는
이번엔
오랜만에
시즌
허곡
##제주
##리로
##내고
그믄
##이십
주지
나니까
따라서
요양
질문
추가
되면은
죄송
얘기가
##더라도
아이들도
오늘도
어멍이
##하는게
전날
거름
결혼을
냉동
##데기
말해서
눌러
뭐였지
바깥
지어
모르게
괜춘
뭘로
##천원
땜에
이후로
미용
이라고
##진다
나오니까
키우는
배고파
있다는
있냐
##으로는
속상
아고
가면서
들어왔
적어
할인
책임
##도록
##과가
만나는
낚시
같다고
했다가
당장
뿌려
했대
행동
경해도
주일
기술
##지기
##싶어
맞아맞아
썰어
뒤로
삼만
아라
싶다고
만나면
하나가
크고
##져가지고
사다가
스스로
안들
필요한
상황이
좋아요
보낸
없언
지켜
문자
##네는
걸렸
김밥
보게
태어
코로나가
냄새가
것을
와야
##대체
##거는
안되는
어쩌고
깔끔
하러
적은
친구들이랑
바다에
산에
동네에
때려
자세
##쯤에
맛있게
얻어
##으민
거나
##시아
동창
##으멍
##하니깐
아들은
케이크
간장
때나
쉬운
오후
##사주
필요가
맞은
피해
들으면
타는
느꼈
먹게
도대체
큰아
전공
좁쌀
때문
하는지
상관없
화가
##향이
이혼
버렸
##이스
##난다
##화가
왔다갔다
관계
재민
야이가
대부분
##하니
나왔는데
된댄
안했
백만
했었지
##할까
아파서
##메기
가잖아
걔랑
##봐서
언니한테
개를
너네는
각자
##나요
##디오
이름이도
들을
넷플릭
귀신
입는
너네가
정해
학교에
남았
편하게
했지만
아이폰
같으면
힘이
들언
보다가
타서
안해도
친구도
훈련
##시기
개웃
허는디
먹기
친구는
않아요
간에
세워
이빨
하시
배고프
숙소
이실
나가면
백신
차려
해난
역사
치매
##군요
시내
못가
할아버지가
새우
한두
나오는데
이름에
모르크라
##겼어
##까지만
화자
##메라
말해봐
보내고
예쁘게
발라
##리니까
해줘야
##에프
버리니까
본인이
사람들한테
것보다
받았어
##으로도
거기에서
갔거든
몰라서
일어나서
우울
##만하면
못한
사니까
말이지
이추룩
가민
##마시
잡아서
말인지
책을
충분
##인게
##상도
##서는
##던지
어머니는
애초에
욕심
먹으려고
됐지
한번씩
하겠지
당시에
테레비
피자
당황
없는거
마이
베트
마셔
물질
걔네가
재미있게
내려오
헤근에
##나물
걔네는
경제
요가
부지런
##아버
교수님이
사기
##했어요
마지막에
##구만
##놔서
프로그램
메뉴
잇고
하나에
자전
아빠랑
낳고
말하니까
목소리
받으면
올리고
시간도
아빠한테
길이
##한디
어르
했댄
##에이
##겠구나
나지
올라오
사모
##주가
비대
시누
가다가
사람이랑
##스도
##스크림
애기가
생각해보면
염색
계약
어색
이제도
번에
좋아하는데
햇빛
##버거
어시
잡는
차이가
이러면
##그내
마음을
베트남
치마
##부는
이걸로
거믄
했으니까
똑같애
싶었는데
겅하난
반에
봤던
부럽
애월
명은
오죽
##아도
##십시오
소고기
말랜
시대
알게
배우고
##야돼
주인공
ᄌᆞ
아팠
없거든
##나네
손가락
마시고
##구가
물어봤
아방이
노트북
태어나
##상을
으음
입을
아빠도
먹으면서
휴학
못살
노란
싸움
##여가지고
어어어
중고
사면
##비도
##번호
조용히
걸어서
과자
좋으
주세요
##먹을
##에다
##이엔
##지마
어디로
영국
요만큼
##그래
당연하지
때에
나는이
여행을
밀가루
이모가
들이
##수는
다양
내는
##쟁이
인데
아이스크림
##그러
이름에서
쓰러
요즘엔
과학
거기다가
안전
테이
##리카
알앙
월에
안될
##있지
에프
휴가
갈까
갈려고
수준
##다섯
##번째
오토
옛날부터
살다가
괜찮지
보민
함덕
먹었던
겅해부난
한댄
예민
##할머니
나중에는
시리
있겠지
상담
##입니까
##꺼야
거기다
있었잖아
##근엥
##거운
이름야
##대요
그랬지
박스
##찌개
이상해
##여고
맞을
올렸
형이
##치도
보말
지방
키우고
분위기
허당
천천
독서
있습니까
정상
누구랑
엿날
여기까지
옥돔
해결
##엄마
익숙
타이
##내는
닮다
최대
##아노
쉽지
삼일
너의
줬어
##허멍
이런데
갈거
된거
많다
들었는데
어게
편해
모르는데
있겠다
계단
천천히
끝날
분명히
써서
세대
야채
상처
빡세
세금
언젠
오면은
맛있지
빠르
##으로만
날라
아는데
하맨
자전거
##치면
그런건
어르신
##스는
가까운
길어
동기
골목
십년
아프고
맞았
##하우스
걸어가
##겠대
샀는데
설탕
주위
성질
맛있겠다
##오빠
배운
오픈
초코
##놓은
나타
한창
##저기
무료
카메라
##해주
정보
찍은
##디다게
많을
뭐하는
발표
시장
이랑
##바닥
동문
어이가
영행
같던데
##다녀
##수광
##주의
싶으면
스포
은행
이상하게
배웠
##였던
재수
애들한테
사는데
##당이
##자로
##센트
막걸
어딨
놔둬
능력
마흔
음료
피아노
##음이
재밌는
원씩
재료
난다
살면
성공
사이즈
몰래
##별로
길게
뒤에서
오른
바보
졸라
명이서
달아
##바이
##선생
##었으면
##보세요
##ᆞᆺ
이쁜
입맛
##씨가
나머지
얘기도
옷도
초등
##으넹
동갑
말앙
좋댄
하는거지
걷는
먹잖아
뭐든
부러
금요일
마구
오빠도
꾸준
내리
안하면
역할
요기
했언
만드
##이에요
아니네
놔두면
##이버
얘기할
혼자만
짜리
하이
놀래
비교
인기
임신
특이
##미가
##져게
어디냐
##쩌고
살지
##겨서
남는
되서
버린
올해는
##종일
##서관
아니까
실제로
생각해보니까
그러다
두번째
와신디
##제를
미래
살다
자가
허젠
집어
감기
등록
찍는
##해라
##가게
도착
성산
허면
##야겠다
##보지
생각해서
종이
들여
이리
사삼
던져
연구
그러네
데려다
억울
이년
십이월
갔던
##게게
감독
못하게
비닐
오줌
없대
##트를
쉬고
넷플릭스
손이
이뻐
십팔
옆으로
아니요
강아
강원도
##보라
일등
침대
음식을
살았어
##허영
육지에서
끌고
##산이
요망
##부렀
##받고
가라고
남자는
사실은
맞춰서
군인
보이고
비대면
않게
##다면
##가난
##보자
##시리
국수
물도
성당
왔을
##려가지고
갔당
실습
전화를
어쩔수
국가
맛있는데
##어진
##시장
하는거라
돌아가셨
주말에
ᄃᆞᆯ
했더니
시작하
ᄇᆞᆯ
보니
해본
##이었는데
##물을
##히는
부르는
가젠
날에
않은데
자는
치는
##국에
기자
놀란
영영
도새기
안타
했구나
##구니
빠지
진심
도시락
빠졌
좋안
나오잖아
##들의
##원을
##들고
다른데
하세요
돼지고기
비가
뿌리
미안해
대박이다
지키
착한
올라와
거주
대표
어시난
원인가
아직은
##대기
있는지
말아야
캐릭
학교를
취직
내내
##치를
마씸
성적
##허민
안쓰
##지요
사진을
생겼어
##시니
한다는
귀찮아
가봐
거주게
신제주
디자
손에
먹으라고
살려고
이용
제주도도
맘에
산책
##이렇게
##있네
##왔는데
댓글
와도
받아야
작업
과목
하젠
게매
##교육
할게
##비를
날짜
##시가
맞습니다
밥은
신부
해갖고
화나
보건
아저씨가
##하더라고
키가
##했고
좋아하지
힘들지
하루종일
어린이집
넘게
차에
나빠
만에
##할꺼
##보니
모양이야
예전에는
끝내
않지
건조
싸고
##으니
힘들고
고등학생
우리랑
부탁
##시다
##이연
##린다
있는게
보다는
주니까
대기
대체
마루
유지
패딩
경우에는
대단하다
왔지
허벅
그정도
먹는거
이성
##서게
좋아하거든
하하하
힘드
못해서
베이
보자
싸워
##나가
아버지는
한마디
단체
삶아서
허연
뜯어
##것이
##타민
##덜은
살암
선수
행사
생각했는데
먹어야지
간호사
##하기도
쫓아
##주로
##까지도
바닷가
일월
##크림
그거야
하고싶
않아서
스위
오는데
어떵해
노인
시골
월요일
##상에
데령
마주
자기네가
갈라
##질을
두고
##주마는
오일장
얘기는
가는거
대면
원하는
웬만하면
사람인데
아이도
외국인
##라스
고등어
맛은
이기
올리는
##었구나
걸릴
개발
엉덩
지갑
공짜
버리면
있습니다
가네
기사
프랑
##하자
##대를
간식
사러
여자는
놔뒀
사당
##카오
##살이
어릴때
주민
사람들을
들어봐
않냐
생기고
지는
채워
최소
##되어
하나님이
하지마
음식이
있던데
잖아
오키
원이
피티
##어로
##수꽈
여기저기
사오
주사
##들아
삼년
어리
해볼
##름이
섭섭
##랑이
세상이
돼가지고
멀어
전세
치면
허니까
먹자
놀이
상품
안내
중에서
건너
일하고
줄어
##리면서
##놈의
가끔씩
##구리
##김치
서비
입에
된다는
보호
옷이
##하냐
오빠한테
교복
그려
가그넹
가자고
가까이
놈이
시부터
알겠지
적응
##님은
겨우
그사람
물려
장소
적당히
사람만
대단한
골라
면허
최악
얘기하면
최근
##셔서
무서워서
하셨
해먹
대출
##서도
몰랐는데
캐릭터
##스러운
싫어하는
밭이
오징
##제가
대학생
개웃겨
튀김
현금
이라
##에선
##리기
##망이
오르
##형이
우리끼리
그래갖고
되겠어
##해지
먹어봤
투자
##주니까
아이패
콩나물
키웠
해야돼
동아리
연말
##시민
가이도
모르겠지만
일만
좋더라
##국이
놀랐어
맞나
반응
안됐
이주
헤서
헤낫
누구냐
마라탕
어딜
##가도
집에만
괜찮을
막이
방어
그랬던
문제는
만족
부부
헷갈
먹다가
걔한테
대구
##하여
남자들은
나가지고
사위
십분
없나
이번에는
두부
했주게
그러니
아닌거
됐다
올린
하겠다고
제목
다가
숟가락
##해부난
##바지
ᄉᆞᆱ
빠진
제라
해사
##하거나
딸은
하던
이래서
인도
##되지
##우나
부끄
살아서
내야
브랜드
학점
##줘서
지하철
개씩
되긴
야이는
사람의
나나
롯데
아쉽
저쪽
천원
##속에
스타일이
고장
놀라
바라
댕겨
맞는데
콜라
##아빠
이거지
나물
##일날
영화관
확진자
밀어
발전
배송
비타민
초가
##네도
##대도
내려와
갔잖아
기가
괜찮다
국내
설마
십만원
뭐를
시루
예배
처음으로
초밥
##해주고
ᄆᆞᆫ
들리
봉사
온라인
잠을
체크
먹을거
궁금해
도둑
바꿨
##는다고
모슬
소라
해놨
##차가
많네
기간
느낀
아르
맛도
##갔는데
해야되나
방금
범벅
키울
##러서
종류가
안먹어
추운
##타고
아니여
짜장
아라동
이월
##가니까
들어오는
뭐뭐
가마
넣으면
그런지
##이었나
했는지
##실에서
그렇죠
##부로
막아
창고
##버릴
자연스럽게
말투
식게
프리
##여야
하는구나
알아야
아까워
공연
뭐였
왔다고
알아지
하라
##감을
이시믄
목소
번만
일상
보인
유리
헙니까
##밭에
아부지
개념
##국은
머리를
잠시
안했어
않으니까
##년도
결과
##방은
것들은
틀리
##모가
고급
줄게
요렇게
낮에
거기를
시키고
대정
세탁
##이션
##덜이
났어
흔들
##마심
아이디
만한
보낼
교통
틀린
홍콩
인천
일학년
##동산
생각엔
손님이
다행히
갈아서
벌레
요런
##성을
가봤어
온다고
당시에는
비밀
##았던
친구한테
누구한테
재밌게
어제도
재미있어
미술
모양이라
사름은
아니지만
뭔말
블랙
##었다가
다행이다
감귤
대만
아시
삼십분
것들을
도서관
##어지
##새끼
얘기했
어두
할래
이랬는데
네이버
앉앙
형부
##집에서
생각할
##이든
모슬포
싸웠
종교
필라
##합니까
올라가는
동백
버는
##졌는데
계절
##너무
살기
적도
들어올
그랬더니
알바를
갈비
에휴
##보게
가위
기냥
야이네
차도
사백
첫째
##아찌
좋아했
말했지
어른들
어떨
태워
##하라
##서가
시어멍
유치원
그러는데
스케
준다고
해그냉
그거지
어른들이
사장님이
ᄒᆞ여
죽고
해놓고
창문
##있잖아
길을
좋아해서
뭐고
미니
없었는데
없어도
보리밥
안하는
원에
코스
##봐도
상태에서
가깝
얘도
이층
어떡하지
돈만
##으믄
화면
##치지
자존
##고리
##날은
맛있다고
국어
단어
수제
우리집에
백만원
아가
##났는데
##제도
화장품
재산
##었대
##한대
##색깔
감정
돼야
치워
곳이
요만
##계가
따뜻한
나하고
않았는데
게난이
선생님은
좋았던
애플
담아서
##저히
모르겠고
싶을
타임
가본
##인트
되겠네
샤워
야무
크림
##사고
말해도
짧은
헌디
##비는
이름으로
봐야지
설거지
자라
하민
##스러워
해야될
꾸준히
가리
##느니
이름쌤
속으로
거라서
개인적으로
알잖아
표정
##빨리
하나를
그렇다
두시간
##스러
과수
또래
마무
부난
아무나
허면은
연락이
좋네
쓰리
학교가
전자
하시는
거에요
맛없
##보험
남자들
가려
아들도
유산
재미없
바꿀
자리가
청년
에어팟
ᄃᆞ
받안
##혀서
공부도
넣는
지고
##니다게
남자들이
아이패드
맞으면
거기까지
어휴
##게임
운동도
그전
아홉시
담당
##우리
##동네
없댄
하다보면
과정
두꺼
킬로
호주
신기한
가진
고쳐
##수로
들어야
어디에
안좋아
기억에
공동
담임
말에
약간이
하길래
##졌다
충분히
벌고
##지않
##롭게
그것을
눈썹
기능
높아
파티
성인
젓갈
##허믄
떨어진
제이
##물에
있어신디
남동생
자이
스페
##국도
입구
입니다
##통령
결혼할
날씨가
블루
사천
대학원
놔두고
시월
촬영
##용이
때니까
##이요
##분에
전화해
사투리를
테이블
부드
심어
진행
해지
조심해야
ᄎᆞᆷ
##거고
그쪽으로
밑으로
##있으면
배울
차는
해안
효과
정신이
해봐야
복잡
장가
##꺼번에
다르지
되난
퇴직
포함
하냐고
아닌디
먹을까
년을
싶긴
##한티
##한테는
사돈
중국어
야간
##려야
##였으면
누나가
강으네
생각하
겅해신디
되가지고
많았어
씻고
양말
아닐까
매달
바르
피시
나누
달달
요샌
초록
##더만
나와가지고
비슷해
##카부댄
뚜껑
충전
이름이네
올라간
단톡
##렸는데
##선이
색깔이
전라도
##는가
우에
터져
할거야
##게만은
##하대
올라갈
초등학생
회장
이름씨
입장에서는
버리는
입원
한명
##가면서
결국은
고마워
모래
보름
속이
둘이서
서서
한동안
##리러
생각나는
저게
##예예
##동이
몰르
사우나
##다보면
##실이
##히고
글쎄
입은
##부난이
기다리
얘랑
죽여
삶아
있으면은
막걸리
동쪽
못먹
플러스
하든
다른거
가나
네가
어지
맛있고
있었네
보멍
울고
찍어서
찾아서
어머니도
한국인
안핸
##할려고
자동차
땐가
운영
원짜리
저것도
##로그
##었으니까
##카드
##기면
##대회
이것이
드러
신혼
있냐고
##나이
##개월
마인
좋은디
나신디
##랭이
동네에서
배우는
가그네
급식
##한댄
##우다게
오징어
경주
##여섯
##금을
##준다고
들어와서
미안한데
추천해
나을
바뀐
집으로
##진짜
알아듣
먹엄
시아버지
인턴
여자들이
파란
##도를
내불
들렁
엑스
엠비
핑계
해볼까
##겠니
딸기
가스
달래
안들어
이마트
##보리
검정
대통령
회의
##사랑
프랑스
살에
없애
아이고야
아무거나
좋으니까
후배
그쪽에
대해
버렸어
말했잖아
되니깐
그러니까요
어머님
북한
독일
독감
와인
있으니깐
전부터
##는다
##바이트
술도
했습니까
##한텐
와이프
서운
다음에는
초반에
공간
어플
이십오
될까
##게이
##받아
해야겠다
잘생겼
술집
##마을
##닮아
떨어지
발로
어디지
알아요
애를
커서
없어져
필라테
봐라
주워
##봅서
그런걸
경헌디
꿈이
한꺼번에
돌고
손을
올라가서
몬딱
사지
애니
파마
##양이
전화가
누군지
근처에
먹긴
체험
##았다고
바당에
참기름
##부모
ᄒᆞ나
들어오면
됐을
상상
애는
오래됐
맞게
멍청
출발
할아버
마음대로
보여주
해주면
결정
머릿
못하니까
미쳐
일일
커플
물어보고
자리젓
가죽
걸리면
영화를
연락을
으로
중학생
얘기하니까
겁니까
편한
##이니
##였고
위에서
쪽은
##기네
혼자서
보일러
온다
웃음
##나지
가지구
한가
모르켜
누구지
##겠더라
거여
햄버거
할머니들
재미가
안녕하세요
빨라
말해줘
십칠
얘길
##랗게
신랑이
도저히
말하는거
짧게
경기
대회
불고
스님
##시피
생각했
얼굴도
그분이
않안
##고사
얘네가
됩니다
행정
산다
이케
친구네
너넨
농협
이름를
힘들게
동남
쓰니까
어실
##금이
먹젠
초딩
##생각
##봐봐
몸을
써도
##팔십
공부하는
다녀야
했었잖아
궁금한
줘서
##버리는
머리에
울어
##으론
거시기
보관
길에
깔아
내버려
넘어서
사가지고
내용이
얼굴에
경우도
예쁘다
개는
##봤자
것에
학교도
십일월
ᄂᆞ
땅이
생견
안정
옮겨
육지에
경하난
목사님
아나
주에
상당히
세트
오만원
##세가
가지고서
노래를
공감
쪽이
지금이
살아도
년이
한달
해났
마당에
가득
모여서
소리를
당연한
걸리는
우도
일에
축제
다니면
과외
텐데
##는이
##다다
##줄까
똑같아
바쁜
수확
하거나
좋아하니까
나두
##어머니
이천이십
봐가지고
##느라
구석
부러워
카레
##랄까
빨리빨리
가봔
##하신
##증이
전쟁
##난이
관련된
ᄄᆞ
밭벼
사장
볶음
읽고
엄청나게
안된다고
공사
쓰는데
오메기
종일
후라이
팔천
##하겠다
##꺼라
거기로
생각에는
선생님도
고소
예게
##육십
##통이
그렇잖아
건드
약을
공부하고
놔야
얼만
##드레
못생
원을
홍보
##피스
들어보
스토리
다를
명씩
좋대
아이돌
디자인
거랜
사발
파리
혹시나
삼양
##로워
##줍서
##방도
팔월
사대
습관
카카오
헤여
호미
##돼지
##으라
##마한
눈을
줬는데
##들에
##원에서
분들이
유학
칼로
나온다
아방은
곱게
트럭
##오백
이따가
가수
갈래
체력
해다가
##키로
##시대
##돌아
않습니까
웃어
##니가
아까도
이해를
어른들은
함께
##으고
빠른
섞어
##했댄
아니었어
친구들은
오래된
보리쌀
살림
성게
스피
시댁
양파
##졌지
맛있었어
스포츠
올랐
이삼
##인줄
있었을
반지
안할
##로운
##기지
이동
##량이
##에서만
알았지
금액
수요일
##주라
그만두
어쩌다
아르바이트
오분
들었던
비료
영해
##오지
언제까지
노랑
생기는
의자
한쪽
##하시
문을
힘들다
해봤자
그러나
할머니는
바람이
웃기다
시킨
아오
아플
펜션
곱창
오전
유월
시작하겠습니다
세개
스키
짬뽕
태풍
퍼센트
이름만
이런걸
서울대
다녔어
최대한
먹여
싫다
안해서
아니구나
마른
박아
유채
물어볼
나라에서
욕을
좋잖아
##벌레
여섯시
동영
방향
저장
좋아할
기본적으로
대상
뭐인가
오리
일억
괜찮다고
경쟁
받앙
##가에
기억도
메이
몇개
별거
##화를
##겹살
방법이
들엉
등급
아니거든
들어오고
밥이
야구
지붕
##라부난
##란다
만들었
들러
무명
타면
##로우
얘기한
꿈을
난이
없었던
##주마씨
애기를
보려고
정확히
이랜
먹어봤어
좋은게
남았어
따고
매니
생길
생각한
말고는
안되지
대장
좀이
잡을
##하지만
사모님
ᄎᆞᆯ
뚱뚱
말해야
병원에서
봤다
스카
그렇게까지
생각하지
아녀
들어본
자기한테
친구들도
걱정이
한거야
버릴
수입
이르
칭찬
평소에
##것만
놀랬
않잖아
파스타
해봤어
##셨어
말했네
수학여행
의미가
나야
눈도
사먹
영향
잘했어
해리
##리어
##제는
##럽게
맛있더라
하잖아요
안된다
##돼서
##하댄
ᄋᆞ
줄을
줘도
##지예
##말을
이십사
들어도
싶어가지고
볼까
참고
사람마다
공부할
할지
##거워
##되니까
##파이
중요해
회사에서
말했는데
못하지
끝에
내꺼
시간은
갔다고
뭐래
ᄊᆞᆯ
여성
절간
##했구나
##사지
결론
경헤
수박
작가
##민이
##데이
##연이
여자들은
할망이
나은
썼어
이쪽으로
허게
분위기가
쌤이
주라고
현재
##주에
어떻게든
머리도
가져와
묶어
부른
않는데
어떠
##간다
##달라
말핸
##된다
나이에
벌초
살려
이루
천만
캠핑
하기로
이렇게해서
많아가지고
유명해
전국
그냥이
먹어보고
힘들어서
먹었거든
부분이
##허곡
있었으면
거요
요번
목요일
보이지
사냥
왔잖아
##나라
않아도
손톱
지랄
##집은
떨어졌
해나
맞아야
학생회
불편해
멀쩡
옷은
##소가
##는데도
시작해
지나면
다르게
독서실
죽어도
##전이
중국인
십육
피가
하우스
너무너무
나오는거
보여줘
뒤집어
고향
손지
현대
귀엽다
너를
되냐
##하맨
##놓으면
사무실
##트도
##싶다
귀여운
슬프
열매
줄도
생각만
먹어신디
환자
##으는
그런것도
맛있다
하다보니까
부르고
가긴
조절
중문
##시로
구해
알겐
억지로
##으래
##도리
너네도
나와야
시키는
반은
빠지는
##센터
마실
보단
##얘기
여자들
사람들이랑
오토바이
아끼
토끼
##방에서
여동생
##하당
##불믄
영화가
그축
메주
생명
입학
##아주
미용실
놓곡
왠지
일할
집의
##로가
##르르
##커라
##셨어요
누군가
부럽다
싸울
와우
##나다
##읍니까
##볶음
가격이
그기
담그
수고
찍을
펜트
모르잖아
느낌으로
달고
모아서
오천원
블로그
##되는데
##수욕
아무렇
부모님이
먹곡
의료
##려나
감동
라인
적금
##시험
##즈니
그랜
만두
차로
통해서
어멍은
도전
무리
##사건
##빠이
##학원
##줬는데
목욕탕
빠지고
##력을
##점을
얘기하다가
##구나예
비슷하게
에어컨
거든
공유
과거
기업
되기
##포터
소개시켜
광목
누구야
돈까
##떡은
##경이
보세요
사와
셋이
소중
간지
없었지
전역
##해여
잡앙
##했나
##했으면
##불민
시어머니가
보릿
알암
하필
##통에
쌓아
##일에
그랬거든
감성
손주
스마트
어디야
어마
거기서도
말해주
노래도
십삼
첫번째
하랜
마세요
##마토
##사무
##방을
하나하나
다니니까
대가리
ᄋᆢ
세게
이겨
정치
치과
있잖아이
느끼는
개꿀
두세
묻어
너만
들으면서
정월
##서를
국민학교
글로
시킬
신문
예수
와중에
장례
저것
준다
있었나
내일은
ᄑᆞᆺ
닮고
담앙
어떤거
나머지는
데로
서쪽
##린다고
##미는
들어가야
시기
그저께
짜장면
마다
주인이
##난거
##들하고
언니야
마무리
##일을
음식도
스페인
갔네
다듬
발견
소스
들어가지고
난리가
들으니까
싫고
##걸이
나오네
이것만
리더
스테
심한
##이었거든
##말도
##너스
생기면
##지컬
##였네
##질거
다니지
사름이
ᄂᆞᆷ
내면
똑바로
의외
하얗
##영화
하나로
##갈비
ᄒᆞ민
하더라고요
걸리고
사투리가
믿어
버섯
삼월
시계
아내
##아이가
이름인가
데려가
어이없
데리러
만져
말려
먹이
부딪
샐러
섞어서
오기
이정도
##라기
정말로
걸엉
방이
한복
놀다가
사만
##르지
아니연
이런식으로
ᄒᆞ는
놈의
말하는데
텔레비
##시녜
생각했어
##쳐가지고
있는거야
시작한
나온다고
바꾸고
마농
봄에
오잖아
도와주
간거
면세
인문
터졌
##난게
##드를
경허멍
가사
몇십
몸무
##나도
##알아
들어가니까
기억은
올라갔
선생님한테
사진이
리모
장기
##어멍
##하다는
먹는다고
시리즈
표선
경우가
걸려서
경핸
남겨
멤버
##더라구
생활을
벗어
서비스
많다고
소방
젊을
##이팅
이름입니다
나가지
번을
##해주는
우리만
끓여서
바리
부정
자극
점수
중의
헤도
있을거
ᄒᆞ영
##지잖아
##었댄
끌어
슈퍼
쯤에
태국
허주게
##하고이
몸무게
쉬어
크지
허주
##팡이
나왔던
##버리지
들어갔는데
많거든
말까
바구니
손해
후반
##체가
있었다
다음부터
여행도
동생은
가요
가니깐
안주
이렇
##좋아
나네
대나무
도리
배려
진지
가인
있단
##위가
다리가
쉬워
실패
##시니까
##불면
뭔가를
먹는다
사진도
기타
땅을
순수
##여덟
자기만
나가야
낳아
무너
셋째
##날에
끝나는
몰랐지
조그만
비빔
씻어
양이
오월
올케
토요일날
노래가
정확하게
가입
갈고
거예
혈압
##겠고
기억나는
털어
##꾸로
다니다가
완벽
초콜
하자고
먹어보
사람이라
학교는
심하게
그렇게도
물어보는
올레길
그레
장애
키운
필기
##가민
##단이
실제
육백
이만한
##파리
올라온
떨어지는
긴장
데이트
엘리
육지는
##도는
##장으로
##레기
도움이
광주
김에
미치
조선
##이라부난
기다리고
누룩
보조
산다고
수면
외할머니
팔았
제주대
선생님들
전화해서
이십일
착해
햄신디
흘러
##으랜
##리게
##박이
취향
##사진
생각하니까
동남아
펜트하우스
연극
돌아다
겨울에는
##사람들
##시간에
감사합니다
가치
밥먹
붙은
슬퍼
환불
##지근
##석이
날아
늘어
쪽에서
탑동
해버리니까
없었고
결제
##구멍
##한다는
가멍
네모
다같이
됐네
듣기
서방이
십사
잡혀
피부가
오바
큰거
자리에
미끄
세월
아껴
놀았
딸도
레드
콘서
##안에
##하진
##였잖아
생각에
비싸지
더워
##보여
왔거든
저디
##오라
##식도
##사람이
대화를
나중엔
갔었는데
뜨는
일요일날
##되서
##판에
##가지고이
보잖아
보라고
이지
저렴
톡톡
하기는
##라지
##일곱
맞아이
다운
먹다
밀감
사는거
살게
알겠다
조사
##하시는
떨어지면
알면
시험을
일어난
미터
한게
##니께
##렸다
##할수
##하기가
먹어본
일본어
케이스
빌어
시급
입으면
##보니깐
##떼기
표준어
고기를
년은
영업
##오니까
##문이
##실거
가는게
누워서
먹거든
비해서
인형
정부
피씨
하느
##라우
따른
어성
올릴
친절
레전
뭐에
백오십
싫어서
물어보면
핸드폰으로
끝났어
도깨
받지
서류
유전
##률이
걸름
때랑
밭을
싸서
조상
필수
##해진
##ᄆᆞᆯ
이름하고
반죽
삶을
시작하면
아이들한테
길거리
##해지고
사라봉
남자친구가
놀랜
물리
쿠키
한잔
##거면
##이즈
거니
재작
둘이가
무한
받았는데
편집
평상
서울은
내려온
하여간
사투리로
가다
뜨거운
서너
장면
##난에
##아방
##물로
부대
외도
##마리
##서야
##저쩌고
갔다왔
결혼하고
기꽈
튀어나
##개가
##선게
들어봤
엉덩이
남이
면역
수건
요만한
##며는
얼굴은
준비를
잘생긴
이르케
해리포터
고산
맞긴
살까
안맞
##트는
##아홉
##받는
아이를
알바생
교장
닫아
좋더라고
팔만
보내는
그전에
##으내
괴롭
벗겨
응급
좋으면
탁구
##물도
아프다
됐다고
월달
조천
##로구나
넓은
도민
살았는데
##가스
아니냐고
되겠지
바꼈
밤새
입이
전이
입술
##있다
##있는거
받아가지고
가질
언닌
먹어봔
먹을래
다르고
수업을
어쩌고저쩌고
자가격
몸도
원룸
읽는
임용
잡은
일본에서
잘못된
먹이고
브이
실수
##인을
##색이
해외여행
뭣도
이가
주는데
##반이
ᄉᆞᆯ
뭐랑
민망
했습니다
옛날에도
재밌었어
귀찮아서
불쌍해
많더라
부잣
삼겹살
했냐면
나왔을
고삼
받으러
존재
편지
##이상
거죠
자살
좁아
아주머니
갤럭
이도
토마토
##단계
도망가
기회가
늙은
되켜
라이
소설
중독
게임을
어찌됐
갔었어
잠이
이어폰
두루
얘한테
위한
지지
##면허
##보이
언니들
십구
##배추
##칠십
않았나
아기들
깨끗하게
고춧
버릇
분들
좋았는데
하고이
있었어요
구백
돌멩
쓸데
야야
적게
하드라
##보다도
대신에
고무줄
가기로
몇년
잡았
##안해
답답해
소독
업무
하겠어
먹어봐
재미있는
남편은
고깃
남친
웬만한
일년에
혈액
있어야지
강남
이자
##바람
##개를
정도만
이야기를
이후에
있기
나왕
의사가
##크냐
##했었어
##거니
##비로
가겠다고
안허
엊그
처리
키도
합디다
##나나
모르겠어요
했던거
만났는데
구천
넣을
센터
우리의
이십만
많으면
멋있어
모델
육천
있니
##줘도
##린거
거울
굴묵
만이
월세
##더래
##였다
##삼촌
물어본
보통은
부모가
필라테스
맛을
물회
조건
축하
##권도
##님도
맛좋아
미녕
엠비티
김녕
나무로
보긴
싸이
이과
이학년
있주게
##어리
간단하게
게다가
관리를
밖으로
족발
##자들
그런데도
말로는
구조
닮안
왔어요
탁탁
올라가면
매니저
나영
삼사
안아
평균
##가다
##카락
사람이야
일본은
문어
삼다
아메
의지
##은게
겅핸
범죄
싶기도
욕심이
입양
허락
아니래
거꾸로
뜨고
삶이
칠백
햄서
##라니까
고양이가
##이면은
##하던데
같은디
가만
명품
엇고
연장
온거
캐나다
검색해
좋겐
크니까
##더레
머리카락
밑에서
##자면
##시를
ᄎᆞ
닭발
사뭇
약이
##부턴
##지다
여름에는
맞는거
지냈
함부로
##놀이
##인데도
물어보니까
주제가
껍질
놓을
보는거
의견
##시까지
##랐어
쟤는
하잰
해신가
##보면서
##치료
이런것도
가지고이
보내주
안되면
사주고
속에서
핑크
한글
했었던
##났다
그렇게하니까
ᄑᆞᆯ
거냐고
되더라고
방언
불법
사귄
##물은
##식은
##하지는
선생님들이
마음은
아프면
기차
##물관
아침부터
같거든
뭐랄까
수밖에
오난
유일
장학
##돌이
##쥬게
나오거든
그것에
매력
삼학년
썰어서
애들끼리
경허고
김치찌개
##카부덴
아름
어땠
필리
학부모
##버스
헬스장
바닥에
뒈여
모시
채소
##했대
##거를
이러는데
사는게
서로가
상태로
갈꺼
단발
뭐라도
밴드
싫다고
##한지
##제이
그러더라고
만들어야
많아요
거절
남원
단백
따는
멘들
주라
찢어
치우
##같은거
##화점
##졌다고
##배기
다음엔
경헌
그처럼
어쨋
왔다가
유니
주면서
##가를
이런건
가져가서
보이는데
동영상
명도
세우
다니는데
애들을
가는디
특별한
답이
안봐
요구
조교
찾고
##었는지
##적이고
좋아가지고
여러가지
신경쓰
싶었어
집집
초대
판단
##려는
##큰게
앉아있
레전드
건축
에너
책상
평소
##볼게
나이도
지나가는
자체를
돈까스
언어
이상은
내려와서
자긴
##겠더라고
##해지는
##글락
샐러드
필리핀
개만
불교
없었거든
코코
터진
##지는거
##해영
언제부터
했었네
우리나라는
고춧가루
남녀
넓어
찾는
그러잖아
땅에
분은
살멍
지름
크로
##으세요
##가야
##이주
##게끔
##사리
##회장
하지도
미안하다
은근히
곳에
##지긴
##집도
아직까지
음식은
움직이
정해져
만들면
죄송합니다
생이라
주십시오
##먹으면
이상형
내려왔
##이었고
부를
화요일
##브이
필요해
모르겠네
집안에
조그마한
냉장고에
교양
여기서는
해주세요
영어로
기침
독립
않다
일고
##웠는데
결국에는
기운
불어
창피
칠천
칼국수
##고구마
##엔에스
우리보다
##면서도
비싸고
한라대
위해
하기도
항아리
##이주게
##하는디
불이
차단
##린내
생각해도
편안하게
볶음밥
대전
배드
애도
##단에
##공원
시키면
버티
참아
해장
##방학
##검진
ᄒᆞ꼼
설명을
국제
##운동
싸우고
농구
둘러
봤잖아
줘야지
##가슴
##여도
싸우는
노동
시대가
플라스
##인은
나온거
이천십
돌리
반복
방울
버려서
성경
안그
제품
##이어서
맛있긴
겅헌디
오전에
저건
##겠는
사람하고
##겠다는
거이
놔근에
의심
지어서
##라가
##델링
들어보면
결국엔
검사를
닮았
당일
힘을
##실거라
있잖아예
시작해서
믿고
세일
잡으러
죽으면
##트로
한국에서
고민을
아가씨
리모델링
배경
사도
잡으면
아까운
재밌언
생겨서
갈때
뭐든지
##한거야
공포
남들
연금
##준다
할머니도
이번에도
늙어
마씨
설레
슬픈
인강
전에도
넣은
들지
였어
줄이
지구
형은
##셔가지고
어제는
시루떡
싸운
왔네
조합
차고
했단
##마이
##세기
그동안
긴가
없긴
정성
##불어
##땜에
영화는
가족이
여고
예방
##놔야
##사님이
얼굴을
당첨
못하면
물은
새해
##했다가
들어보니까
나왔지
싶은디
지나고
##다니는
불러서
연애를
날도
되냐고
보거든
씨씨
##었습니다
##민턴
##사로
##두부
몽골
반반
부서
설날
시커
장만
조리
징그
추울
##줘야지
하는건
떨어질
서귀포에
교환
단순
않앤
억새
중심
지은
##거라고
##르트
##럽고
아이스
되는구나
핸드폰을
잠시만
집집마다
김장
바짝
울면서
초에
할때는
##더라구요
건강하게
마스크를
마침
믿는
벌어서
살던
포인트
##주라고
얼음
줄은
허랜
##와도
##소에서
거라예
끝나서
나무가
오면서
웃으면서
티켓
##베이터
가까워
피시방
한식
했다는
이름이한테
일본에
집이서
유투버
데를
벗고
해보니까
##가믄
##였구나
##선을
마음으로
년도에
구라
능력이
먹지도
빨아
휴대
##각시
한번에
고수
추룩
가볍
부동산
빵빵
##진다고
진짜요
빌려서
##겠냐고
##나난
##세지
##국을
먹었을
어서부난
아프지
관광지
과수원
껍데기
더러워
책도
말했던
오라방
플라스틱
맞수다게
방탄
##그냥
##엔가
생각으로
저번에도
지난번에
밥만
본거
생리
좀더
##집을
뽑는
세화
실험
쌓여
촌에서
아니라서
에스엔에스
##시키고
빼빼
송편
오게
해봤는데
허허
##차도
들어가지
먹었잖아
먹으랜
공주
난다고
비어
애기도
혜택
##그라
##보면은
아니우꽈
좋아하잖아
ᄒᆞᄊᆞᆯ
목소리가
에바
이탈
조개
효과가
겅해가지고
고려
아네
일날
작게
종강
드라이브
격리
고랑
입엉
##보믄
이십대
발이
슬슬
찹쌀
패션
그렇게하면
돌아가신
알았거든
말자
말려서
봤어요
으으
주먹
##아파
##용으로
아니였어
안되겠다
가지도
심리
연어
장갑
##애들
피곤해
걔를
외모
차례
인스타에
가구
원이면
##있어요
##났지
뭐도
##까요
##겠죠
그래서이
오빠네
그랬나
나한테는
생각해봐
고만히
담가
사장이
소나무
영장
일으
전까지
칠성
할라고
##져야
##잡고
##들이나
남자를
시작할
바늘
소가
쌀밥
의무
참여
##이었던
##티가
알아신디
아마도
마지막으로
##선생님
배드민턴
고기도
글을
돌아서
백팔십
얼른
웃고
자신이
주머니
판매
##시지
##티콘
경영
남안
낳을
상해
정답
했냐
하면이
자리에서
집어넣
마셨
맞았어
보네
쿠팡
생각핸
지금부터
먹어라
게난예
일어나면
자가격리
농사를
대리
아하
아랫
의식
##가이
##인거야
##갔지
##테니까
##많이
걷고
년대
망고
건들
고를
본다
살안
센치
##하셨
못했어
뭐더라
비벼
심장
없구나
없다는
자르
회계
##일은
사람으로
될건디
몇시에
빼야
##스테
친구를
괜찮아요
시청에
가거든
말래
솔잎
##보기
##관에
##놨어
먹었다
동생도
몰아
못한다
안으로
열흘
장아찌
##디도
##쿠과
여자도
가져서
삼십만
식당에
끝이
닦아
드리
신세
쓰잖아
지슬
허는거
##인도
##사에
이름오빠
어울려
구두
까지는
소화
우연
공짜로
가켄
고통
순대
행이네
아니랜
나라가
것들도
겨난
고딩
단지
닮았어
당뇨
열고
##간다고
살당
아웃
안허고
위주로
해병
##다운
##보라고
##활동
생각난
하나의
이름이라고
거기서는
전화번호
하루는
마이크
##거리가
##입고
모르쿠다
맛있언
걷어
디즈니
또이
부추
제출
책이
항공
##함이
단풍
때리
오이
용담
살았지
살았던
수술을
어신거
공격
대문
몇살
봐요
쓰는거
엄청난
ᄒᆞ곡
##다니고
했었고
태어난
힘드니까
겅하고
날씬
러시아
매장
팔백
이제부터
아이유
괜찮고
경해부난
휴대폰
가잰
없지만
##데도
##기간
##드로
건강검진
늘어나
모기
방에서
오로
잔소리
팥죽
하더니
##마가
##이민
##그렇게
##시네
들어강
##하지도
있네이
가져오
시켜서
예쁘고
어쨋든
구월
로또
바꾼
않네
영혼
쪼금
##수수
렌트
인상
해수욕
##만해
##동에
##싸움
알아져
보면이
기도를
어렵게
고운
구나
남주
맞아서
문제지
운전을
깊은
되여
설치
지나서
같더라
사춘
아팡
애교
##메이션
괜찮네
##기로는
고모가
부어
없더라고
##하던
여기로
알바도
신호
아씨
해가지구
##초등학교
이름인
건강한
피는
했주
누구나
식초
##스템
떨어지고
##아니야
해보자
되크라
해산
이거야
소리도
며느리가
이신거
어이구
어찌됐든
고와
접촉
지인
출신
춤추
경허믄
겅허고
경험이
개나
기저
발음
불을
실내
안고
오민
##해줘
사람이니까
힘든데
개도
맷돌
예능
잘라서
특징
해봔
ᄇᆞ
볶아
지점
##란게
##차를
되는게
갔나
발달
페이스
했겠지
##부니깐
알아봐
오십만
체육대회
꺾어
렌즈
##부를
##지는데
한다음에
영어를
스무살
간병
떠나
리뷰
모셔
운전면허
신어
파는데
##신거
##이옌
##그릇
##말은
아니니
얘네는
위험한
아버지도
근육이
여유가
같더라고
교사
많더라고
신입
안했는데
응원
##시경
생각하거든
아이들을
카톡으로
지내고
가보면
경기도
됐잖아
멍석
못해도
버무
상에
않니
##았다가
생각하는데
누구네
중앙로
나잖아
##꺼풀
##과는
##냉이
만들엉
신경을
빨간색
ᄌᆞᆷ
갔으면
뭐꽈
햄수다
기억을
공부해야
않았을까
종류는
한자
##하민
##군데
##구나게
타이밍
밤이
##르게
##다는게
걔네들
엠비티아이
두명
말하면서
뮤지컬
받으
부작
스위트
몽땅
이왕
##터리
##바리
어른이
반이
##문화
##값이
모르지만
어머니한테
아프다고
움직여
애니메이션
견디
닭가슴
오해
일정
전주
집착
코트
##자에
잘못한
에이아이
꼬리
됐어요
등산
사왔
지워
쪽파
##디어
##의원
공부만
나왔다고
한국사
갈수록
고정
곤밥
먼지
예의
##내서
어디까지
할머니네
모양이
움직이는
깎아
뭐예요
손자
하래
희망
##로로
아주망
걱정하지
고기가
깻잎
냄비
놔도
없더라
주택
클래
##관리
##쳤어
중앙여고
넘겨
##종이
어디가서
아프리카
보기엔
마이너스
가벼
볼려고
저쩌고
해달라고
##당도
##하고는
느껴져
반짝
오오
최저
클럽
편입
##이기
먹었다고
대단해
빡세게
콘서트
멈춰
뭐렌
봤다고
정이
##봤지
아니가
그렇지만
동서
뷔페
얘를
유기
그런것
만들었어
어머니네
말고도
걔네들은
어딘지
경상도
좌우
##가멍
##받은
다음부터는
오후에
우울증
드림
물로
시스템
##병이
##티비
##중이
하는것도
얘기하는데
내려오는
런닝
마켓
먹엇
보증
수다
음성
짓고
챙기
##지네
##거리는
##사에서
##았거든
다음은
삼촌이
따뜻하게
그자락
시누이
그이
내놓
바껴
붕어
##하구나
가이드
다녔는데
대한민
면세점
분도
천만원
체인
팔아서
올라가고
본다고
있당
잘했
짓는
착하다
##갔다가
##겁게
노래방
그디서
이쁘게
스케줄
공장
때쯤
마감
엎어
예술
##기보다는
##쓰고
아이고게
엘리베이터
곳도
데이터
로맨
사나
사줘
잇는
있수다
##시도
##껀디
그랬구나
이번주
졸업하고
놈삐
놓아
뭐할
였는데
오믄
평범
##었습니까
##신데
##기구
##ᄁᆞ
그랬잖아
낳으면
이빠이
컨셉
##고루
##애가
가봐야
거였어
떡을
스티
열다섯
##마귀
사람인
교육을
귀엽지
기이
바르고
차에서
##다근에
##카페
##그런
##내기
결혼은
나름대로
공기업
아메리카
낳은
마냥
모의
잠만
잠자
장에
좀비
종합
##러워서
##하젠
##와이
자기를
위험해
안타까
감염
노루
덕분에
얘들아
왕따
잠도
팍팍
##렸지
##해그넹
##행으네
##렉스
동네는
시켜먹
추워서
통장
##함을
물어봤어
안되는데
돌아가면서
계좌
뭡니까
##부인
##이렌
##학기
돌아오
그만두고
똑똑한
급하게
덮어
따서
베란다
산거
위치
##질도
그렇게해도
상관이
예전엔
멋있다
고지
놓으니까
빠질
실망
인디
테니까
희한
##마켓
##있으니까
##네이
##다보니까
##고가
##보려고
##허연
이름의
몰라요
이상하다
재밌을
##ᄒᆞᆫ
누게가
것보다는
들었거든
열이
오는거
일제
##보러
우리를
여자를
할머니랑
내려올
나왔다
메밀가루
열두시
멀미
보드
앞이
앨범
##계를
시간만
선생이
애기들이
상황에서
##생활을
거꽈
기록
분리
붙어서
빼면
사탕
할건데
해석
##와가지고
준비하고
들어갔어
끊고
일층
짧아
풀고
##가리
얘기만
결혼한
먹으라
##어가는
시험이
취미가
게메이
까다
성장
웃겼
주잖아
헤난
화북
##맛이
##려니
그렇게해
검은색
도남
썼는데
음력
##할게
##랑은
##일로
하면서도
못하겠어
주위에
식단
해당
##지나
##할아버지
기초
달리
스파
양식
입어서
힐링
##버니
##숫가루
먹었네
삼십일
올리브
스테이크
몸국
살인
잔잔
잠잠
지쳐
##겠습니까
##됐어
##주행
##내미
개그
고백
눈으로
분에
하주게
##하기는
##온거
애기는
좋아해가지고
주변에서
겁니다
되는거야
때리고
여드
이놈의
화내
##래요
먹고싶
여행은
가르켜
초가집
가당
교정
받으니까
샀거든
작고
터지고
##수업
##주마씸
##때마다
먹어요
만나야
운동은
마음의
대접
브로
브라
시설
아맹
그러냐
아이라
만나지
가야돼
아쉬워
거였는데
놨다가
뒈는
때라
살거
웨딩
##이너
##고예
##냄새
정도가
힘들었어
올라오는
거만
긁어
나처럼
레이
물만
삶은
안먹고
있죠
자매
좋겠는데
##도에
##여게
##차는
좋아했어
거라도
동네가
중국에서
자식이
##ᄀᆞ라
기념
문전
앞머리
자야
자료
##구백
##지면서
##호사
##히면
##명을
생각하면서
살아야지
동그랗게
이탈리아
마신
분야
예뻤
주랜
##을거야
##냥으로
제주시에
누구는
있을때
준비하는
이유는
자식들
오메기떡
가보니까
두어
명만
##신도
##원은
가슴이
거가
돼여
백화점
오케
일인
하지만은
##진이
아프니까
두꺼운
내서
대놓고
몇백
살살
왜요
조각
##인들이
여기선
여자랑
가랜
갔었거든
곱닥
봉투
안한
##해그네
##타리
몰라가지고
나왔잖아
모습을
샌드
작품
훔쳐
##껀데
있고이
다섯시
나눠서
기절
마련
보이니까
와라
지을
해버리면
##감도
그런거지
게니까
때고
리얼
맞주게
정지
지루
피고
##스토
##속으로
##드리
##위로
있을걸
만났을
기계가
문화가
미쳤다
닭가슴살
멋진
몸은
않거든
진정
##된다고
가든
들었을
크면
티가
경허민
행복한
인터넷으로
고마운
갈색
기주게
바나나
버터
살도
자면
절에
트레이
##같애
##보내
##집니까
##뎅이
좋아한다
ᄄᆞᆯ
막혀
목이
세번
양배추
잘살
호나
##지방
그거라
음식점
##겠네요
스마트폰
값이
마시는
##우과
마취
못했
물고
아따
잠옷
한시
헌다
##디션
##낫수과
가서도
먹으난
동생이랑
끔찍
따지면
월요일날
잔인
하켄
##나니까
바퀴벌레
게이
길러
부조
살찌
해연
##신을
##밥은
하나밖에
대학을
스트레스를
무섭다
고추장
대기업
걸고
없습니다
오랫
하튼
엄마네
운동하고
먹거리
##주는데
어렵지
여자친구가
가세요
돌이
뿌리는
삭제
외로
원피스
짜고
##졌네
만났어
되믄
두시
##렸다가
##자들이
##사이
##애기
없어진
남자랑
ᄀᆞᆮ
ᄐᆞ
공간이
나민
디가
레알
붙이고
사거리
새각시
일기
##라미
재밌지
이모네
다음주에
문과
발목
쓰게
야자
잤어
해놓
##일까
##비에스
비싸게
헤어지고
하르방이
씨가
안와
연탄
태권도
화상
##도도
##리오
##었던거
멀리서
거리가
구분
귀에
빼는
이벤
걔네도
박물관
오버
이태
이쪽에
하신
사람들의
힘들다고
말하더라
담에
돈가스
산디
세븐
시민
쌍꺼풀
입으로
전학
점이
좁은
좁ᄊᆞᆯ
차이나
말하기
달마
되주게
두려
따러
상하
싫은데
여수
이나
이니까
임대
##지민
##박스
맞은편
걸을
때이
부락
숨겨
잘하면
##줬지
남자도
붕어빵
대기고
맡겨
사이가
우산
이마
이길
조기
##다닥
##영이
##르륵
특별히
갤럭시
괴물
노릇
디저
무게
빨개
손흥
해변
형님이
##나와
##력도
##았어요
필요는
깨달
느낄
미숫가루
세명
지치
##이였어
기억해
그것은
회사에
배고프다
부지런히
감정이
계시
귀한
이면
지혜
##교회
결혼해서
아쉬운
과연
매년
밭에서
생강
하드라고
##일걸
어떵행
시작하는
이시면
안하지
일구
주는거
찔러
해놔
알았어요
자존심
깔고
년생
되더라
벗어나
사료
선흘
쓴다고
오세요
웃는
향이
비싸다
미역국
부잣집
농약
에버
요금
우럭
자리를
집에서도
##사무소
의외로
놓지
놔가지고
눈물이
따야
잔디
적당
회식
##하루
##두면
##상은
##허지
##율이
##웠던
##에프피
거잖아요
구덕
땅콩
때야
마치
몇시간
선과
어선
전통
주의
##있나
##사주게
갔다오
이십만원
버스가
헤어지
##버렸지
동그란
될꺼
외워
젊었을
제작
줄넘
참치
채로
허리가
화를
##막이
되는지
마음도
한국에
겅헌
나게
라디오
많대
이득
##불지
한번은
운동화
불편한
아닙니다
끼워
많안
바위
사월
왼쪽
인연
챙기고
##되는거
사람들만
하지는
가문
간대
그면
땡겨
바다가
방문
베어
보이잖아
수익
한치
##수기
##일도
건강에
거로
거면은
안행
통과
팔로우
##따라
##재기
여기다
그럴까
일어났
형님은
ᄒᆞ여그네
까페
몰려
묶어서
연자
##음을
그거이
먹으멍
바꿔야
강사
나강
백프로
나왔네
문제야
바다에서
먹었어요
학생들
마을에
보기에는
동시에
메역
부에
스터
올리면
정돈
##소한
먹어난
어렵다
나갔어
유산균
아무렇지도
떠오
사신디
오사
줍서
갔다와
오랜만
사귀고
바깥에
인문계
단단
몰랑
분들은
안다
양쪽
패키
##맹이
##월드
스타트
졸업식
대해서는
할망들
좋았지
아줌마가
나난
양심
와그넹
우는
팡팡
##이니깐
이거랑
건강을
간이
멋있는
뭐여
부주
피피
돌아다녀
커피숍
되는거지
특이한
밟아
안남
팬티
##자나
##았으면
저기서
알아보고
올라왔
모레
밥에
써가지고
안오
커버
평화
해나신디
##삼십
##헤서
주제를
마사지
복학
스킨
쌍둥이
##졌을
생각난다
영화도
우리집이
마인드
장례식
그린
따시
마약
맞잖아
성형
##당에
##죽은
그거잖아
소리야
금요일날
더운
동산
재능
짤라
##줬거든
이서부난
받아도
그다음엔
내지
뉴질
먹네
먹던
불가
쓰라고
인종
학번
허는데
##해봐
##기사
먹어가지고
나왔거든
싶어도
아들한테
다르잖아
군대에서
계획을
보인다
수제비
재작년
아메리카노
몇시
직원이
##때가
##테크
아니게
돌아가는
가을에
고만
길로
불만
이웃
죽기
학과
말이에요
보내면
때에는
알겠습니다
잔칫
주기
타지
##장판
시간씩
잡아야
응응응
굵은
납작
들었지
했져
##미널
그랬었어
다녔지
선물로
기계로
##주기게
공익
나면은
됩니까
숫자
안허여
얇은
억양
은혜
한단
##아들
가고싶
시켜야
대화가
서방은
그룹
듯이
말지
백칠십
##인들
##리닝
나한테도
사십오
선물을
미국에서
어울리는
공항에서
기저귀
놨어
반갑
병이
비용
빠지면
지났
##꼬치
그거하고
오른쪽
그그
더이상
마디
바글
손도
엄만
일해
##받을
##순간
##질은
기다려봐
가짜
낮은
밧듸
양반
적혀
##르기
그때까지
하고요
자기의
알바가
겅하면
떡도
소풍
양아
여보
이분
이호
전엔
프라이
##전을
##리는데
##식품
얘기하면서
남자친구랑
다양한
갔어요
거마씨
나에게
데꼬
요리를
육만
##보민
##잔치
공부는
사이트
겅허믄
냉동실에
동문시장
놓아서
반려
사망
운이
통통
들리는
뜬금
막둥이
많긴
뭐하러
보이면
오년
흰쌀
들어신디
사람이고
내려서
비싸서
사라져
행복해
간댄
내리고
동지
컴활
##려도
##때부터
##웨이
서울로
집에서는
봐야겠다
웃기지
기준이
해안도로
바뀔
싶언
여보세요
얘기하지
전화도
말이냐
받아들
아파가지고
비싼거
가로
고객
국밥
말린
아싸
지들
현장
화난
##물어
##바글
##허면
##공부
남편도
모른다
오사카
때까지는
바싹
소고
하겠습니다
##불라
운동하는
그만뒀
초록색
스카이
긍정
꼰대
샀지
실어
야외
이레
인성
찝찝
한편
##권이
들어봤어
알아들
재미로
샌드위
기간이
됐고
배불
속옷
저래
죽었어
##봤거든
여기를
나오기
먹으래
했었나
스터디
그제
담고
막둥
벚꽃
뿌리고
활용
제주도만
오랫동안
뛰고
싶거든
지리
##지난
##적은
해주지
중간중
이래가지고
자세히
ᄃᆞᆨ
고망
됐나
라이브
문이
붉은
식품
안써
없으니깐
자락
잘하
콘테
하귀
하던디
##수화
##루마
##제품
제주말
나와신디
넘으면
뛰는
명을
복지
얘긴
이차
읽을
이십년
##이었잖아
느끼고
언젠가
거처럼
둘다
들엄
떡국
만만
사준
술이
아구
지게
카페에서
역할을
금지
기냐
떠나서
베개
비염
오메
주방
했더라
##바퀴
##산디
##금도
##이라든지
너네랑
재밌겠다
육지로
아이구야
한라봉
하얗게
그놈의
도라
엠티
입어야
저지
취급
큰딸
##이었지
##호가
##씨는
제주도의
중요하지
허난에
좋을거
가그냉
기어
누에
돌리는
들으
뼈가
싶었던
쓰면서
인테
할거라
현타
##신은
##단지
##농사
거실
늦어
저리
한숨
##마농
연락해
불쌍한
개구리
바디
얇게
이만원
지꺼
찌는
항아
##기라고
##껀가
하지말
뭐냐고
##사람들이
널어
당신이
댕기고
맨들
비비
순두부
싶다는
이는
중반
질질
쿠폰
회원
##성화
##데요
좋아해요
동안은
어려울
닮은데
네시
돌로
봤네
슬리
외삼촌
케익
##근데
이름라고
##하는거야
제주도로
여자아이
가봤는데
낳아서
반말
잘한다
투표
##회사
##였을
아들을
생겼는데
스피커
경력
백이십
봤고
선거
일회
했잖아요
얼마에
살아남
먹는게
할머니한테
카페에
배워야
추억이
사삼사건
요건
찾을
친하게
팔면
##의를
아니예요
살아온
아부지가
음료수
유일하게
개역
두껍
뒷날
못핸
뽑고
안간
왕으네
##리라고
##안이
##져이
만들려고
보지도
아덜
오다가
유아
이라는
투명
##여중
##유의
재밌다
돌아가셔
원장
제한
주려고
허잰
##드르
##엉으네
그렇네
이십분
안되니까
된다니까
일어날
이쁘다
입장에서
꾸미
없는거야
오뎅
했수다
바이러스
봤나
싸가지
원장님
잇엇
죽이
할려면
허라
##했주게
##리나
##각이
##대학
##햄서
아닌게
수업이
해야되는데
주인공이
어마어
가부난
걸렸어
인지
##구하고
##게티
만나러
기본적인
뭐였더라
남을
시기가
##졌잖아
##온다
지내는
소문이
갈게
갔고
골고루
그쵸
남녕
뜨개
리가
버거
버리지
뿐이지
선임
중매
처녀
탄수화
패스
흐린
##다그네
##느라고
##따로
할머니들이
걔네들이
그러게요
기생
식사
신용
썩어
안사
올려서
잘난
털이
튼튼
해보면
##났주게
##주택
##시코
아니우다
않았어요
관절
말하다
약해
열시
옥수수
있겠지만
자녀
자다가
중에서도
##려면은
다녀서
관광객들
끓이면
명주
미루
봐주
숨어
습관이
##복이
너무나
요즘도
##해야돼
가르치
돌리고
믿을
비자
사일
수수
절대로
칠월
타입
튀어
거기만
##이라니까
만들기
살아가는
느낌을
그날은
녹음을
피부과
식구들
나갔다
바느
바른
약도
저걸
통에
헌거
##두기
##발이
##순이
##이어가지고
마블
왔댄
전과
지각
하기가
하느냐
##있어서
##십니까
##대고
##공항
맛있었는데
너네한테
전화로
보내야
병원을
기다리는
나쁘진
빼빼로
된거지
옆집
와그네
원은
할걸
호떡
거지요
가져갈
건져
고람
남한테
막히
먹읍
얼어
연동
##니스
##으나
##금은
##프라이
제사를
뉴질랜드
단추
있거나
쟤가
차별
층에
흑돼지
##두리
##심을
##풀이
받아들이
친구들한테
신청을
도깨비
갈수
남매
더러
스크
재활
헤가지고
##전히
##아웃
##먹은
좋아했던
어디를
나가니까
나와도
우리나라가
아래로
갑니다
굴러
귀신이
꼬박
동아
멈추
소속
쓰던
인분
##래기
##드만
##았잖아
##엑스
준비해
서귀포에서
제주어로
바빠서
거겠지
고랐
그놈
나왐
살라고
삼각
시도
안걸
포도
##소를
그렇게하고
조금이라도
떨어져서
찾아봐
회사가
가족들
말아야지
안타깝
ᄂᆞᆷ삐
기관
떠서
물고기
열받
일종
전달
주거든
해져
해버려
##한가
##먹지
##점은
옛날도
했는데도
괜찮은거
결혼하면
노래는
깔끔하게
진지하게
공개
알람
원만
일차
트로
##있게
##미도
##위를
스트레
시절에
가래
거우다
꽂아
되어서
모이
바빴
사년
술은
정기
##난예
##았을
이거에
이젠이
가져간
ᄃᆞᆯ아
그죠
보존
짓을
##미리
##된거
##워치
아니더라도
근데도
있었구나
물어봐야
##어가면
ᄀᆞ튼
경험을
확진자가
뉴스에
결론은
초콜릿
감당
고둥
맛에
바농
부인
##구려
있는디
ᄀᆞ루
보냈어
돌멩이
단백질
국시
까만
드니까
멘탈
못하는데
방을
배를
왔던
인구
전시
파서
집에도
필요도
정해진
넣어야
따지
비쌌
살때
신천
싱싱
저쪽에
진작
착착
##직이
##님한테
##댕이
하는건데
나오긴
가야겠다
요양원
나이는
성향
열려
위가
이잖아
전까지는
한거지
##프트
학원을
시청에서
말씀을
그추
##으신
##구이
##했으니까
##하랜
##타임
내려갈
미안하다고
##시키는
길고
껍데
눈빛
분의
비누
월드
젓가락
존댓
쪽팔
체력이
푸는
##것들
##패딩
생각했거든
힘들었
갔다오고
도와주고
삼다수
감아
뜨면
반대로
번이나
보젠
볼게
아지
있음
진상
하냐면
##로에
##께서
##니깐이
많아부난
일곱시
뭐하맨
놀이터
불닭
소는
써져
찾으러
타야
평일
##정은
여행지
이미지
바글바글
공원
구워서
내부
닫고
밀려
박박
소나
쉰다리
##하래
##사켜
##름을
##레이크
##부터가
올라오고
다르니까
인생이
겅해서
뜻이
반팔
쓰다가
쓰려고
이신가
파이브
##이제
##분거
버스를
고양이는
나쁘게
깜빡
먹자고
상추
왜지
헷수과
##할망
##할때도
그렇겠지
돌아댕
운동이
가지가
성격도
커피를
다녔던
수영장
빠르게
도리깨
뭐는
삼만원
이고
적고
짜는
짱구
##나보다
##쯤은
##차별
그래야지
만들지
가져다가
시작을
생활이
사랑을
화장실에
영상을
방법을
내장
아시아
앉은
예상
온천
찌개
코딩
그거밖에
##이라든가
오늘부터
남자애가
달린
밧디
샴푸
성읍
수치
쌀국수
제삿
집들이
하룻
##버련
있었다고
느낌인지
가야되
요번에도
바뀌어
상대방이
끌려
끼리
댕기는
밥먹고
뿌려서
삼화
이수다
일이야
태양
##다며
##셨는데
##프가
얼마씩
돌아가고
있다니까
ᄆᆞᆫ딱
그전에는
할아버지는
미끄러
거북
말대로
모인
싱가
천주
##기엔
##리멍
##토리
##봅써
일본말
말하려고
상관없어
비싼데
모자반
사대부
손흥민
눈은
마카
무거운
뭐영
보는게
쓰거든
헤엄
##우지
##서에
##검사
다시는
재밌었는데
안나와
인터뷰
주차장
여드름
기부
밭도
비쌀
산듸
실력
장마
주면은
터미널
##들어서
##집니다
##져도
##잖아이
어떵할
가족끼리
##ᄒᆞ게
안좋은
신혼여행
것까지
그중에
더럽
둘만
맞다고
빵집
소도
약한
연세
하던가
##우가
##사라
##대에서
##선수
##을까봐
찾아가
모양으로
여자친구랑
않는다
시끄러워
대중
멩질
신성
원도
하려면
##호텔
##텐츠
그렇게는
정도의
먹으면은
나무를
아방도
예쁘지
바람에
매일매
내창
동양
드럼
발령
빌라
살을
소비
에그
줄까
확확
##오리
##레인
##밥을
##점에
하더라도
따라가
앉아가지고
하고싶은
고기는
맞안
미워
백육십
인식
있기는
전도
정리를
##했는지
얘기했어
먹을게
중국은
에이치
점심시간
강아지가
고개
꼼꼼
녹차
부처
부부가
사줄
사려고
스님이
한거라
해먹고
형부가
##기에는
##드려
맛있대
돌아와
먹는디
많은거
어멍도
재미있을
우리집은
연습을
성님은
모습이
피씨방
거려
거니깐
고집
마시면
목숨
저러
중산
편하고
표정이
화학
이름로
새끼들
빼고는
약속을
남고
마누
우이
인증
한지
##앙으네
##립니다
맛있는거
가져다
어쩌다가
환경이
도두
되요
매주
먹기도
방역
빼서
살만
썼던
이중
인절
정식
찍어야
칠만
##리네
이거이
알아보
공부해
이러다가
필요할
부르면
아버님
느꼈어
페이스북
양아치
게으
비는
이삭
운동회
입맛이
같습니다
경계
계열
그아이
글씨
너나
너미
명의
배부
사학년
산업
세무
오디오
파악
한정
##었언
##이신디
하나라도
제주도에서는
겨울엔
사름덜
일어낭
노력을
미쳤어
개에
걸러
곧는
닮수다
빡빡
잘핸
코가
##리는거
##하겠지
받았지
상대방
두드려
가가
가파
났는데
물레
배도
불고기
자퇴
텐트
트라우
##이우다
##문을
##관계
##허다
##없고
##낫어
물어봤는데
내려가는
바뀌고
넘어가면
해장국
가거나
구름
꿈은
대고
돌담
막창
지저
찍으면
한번만
그랬었는데
운동장
##거라도
찾아보고
핸드폰이
취미로
어머나
시끄럽
될건데
듣지
소매
야인
잘한
큰데
##성은
##치마
건강이
경헹
비워
시꺼
오빤
일자
질러
##라든지
##적이지
그때만
슬리퍼
갈지
농담
붙여서
식빵
재테크
합쳐
##그때
##머리가
##헤영
느낌은
삼십대
피피티
경ᄒᆞ
내리는
많았는데
별의
오려고
적삼
##했언
##걸랑
##식당
지네가
다마
대형
드릴
마자
명심
야이도
접시
쳐서
##리랑
하니까는
거난이
알았다
알았다고
바뀌는
알려주
오토바
걸련
것이다
겅하니까
낫다
바삭
사줬
온대
질투
첫날
후기
##었단
##았네
##위에
##렌지
그러는거
좋아한다고
어디다
엄마들이
아들만
게임이
손님들
곰팡이
레벨
무거
벌금
트럼
##린데
##조림
##쇼핑
이십이
들어오니까
사랑하는
누군데
돌아다니면서
가근에
기독
됐거든
못허
생산
수월
오나
인기가
하라는
##은행
보고싶
자기네는
외국에서
마트에
해줄게
얼만데
안그래도
갱년
게서
게스트
도쿄
삶의
소심
아진짜
좋거든
차지
##호박
주제는
천주교
도는
듣는데
들더라고
만낭
비트
왔었어
타러
텃밭
학습
##주인
##하냐고
##ᄂᆞ
여름엔
학생들이
해야되고
하얀색
브로콜
공출
꾸며
댕길
둘레
매트
사귈
쓴다
씻어서
와랑
조림
터질
팀이
편이
평가
향수
환장
##지구
##라가지고
##주랜
##재가
나도이
물어봔
이시민
해야되지
깨끗한
스타트업
남녕고
갖다가
냉국
동글
않지만
왕복
체질
해줬어
##지사
##리다
그랬을
미국은
알려줘
가지는
갠가
달걀
매번
접종
정의
집에는
필름
하겠지만
##렸다고
##데가
##음식
자기대로
따뜻해
진심으로
최소한
ᄎᆞᆯ레
에버랜드
박사
잡초
줄여
중순
착각
콩은
할게요
##고라
##멍이
##사십
##베기
어디든
없어졌어
보여주고
부산에
웃긴게
인터넷에
여자애가
대한민국
고른
곳은
뿌듯
애랑
캡쳐
펑펑
##목이
##분의
##타워
##웠지
사람에
경허영
배고픈
##버린거야
다는
매고
목장
몸매
보태
빠져서
안가고
크기
큰언니
타로
##어는
##인지는
##하겠다고
##약을
##셔야
##놓는
아직까지는
ᄒᆞᆸ
담배를
고스
사가
씨를
알겠다고
잠수
팔지
##허젠
##실로
##실을
##조사
좋아라
아니라도
##적으로는
드라마를
고민이
최고의
직업이
어딨어
거문
내기
누르면
명인가
살쪄
서리
우동
잇수과
죽었
준거
하겠
##공이
언니들이
##이라는게
스타일은
내용을
녹아
레시피
목에
식탁
어쩐
##테주
##판이
여러개
행동을
매일매일
깊게
씹어
열아홉
잘되
죽이고
##오라고
##년이
그거가
생각해야
##사람들은
웃기네
같으니까
교대
라떼
보살
셋이서
차려서
편은
하트
그러더라
생각했지
들어봔
없었잖아
내년에는
거슬
느네
무당
분만
청묵
##보카
##르니까
누구도
유명한데
확실하게
고구마를
예쁜데
어마어마
기둥
넘은
늦은
니까
레몬
바가지
비린내
빼떼기
예비
울었어
이놈
페북
형도
화려
##해가
##키는
##주를
##드도
얘기해야
제주도를
닮아예
하는데도
했어야
코로나도
장난감
기름떡
나갔는데
녹두
로망
먹잰
분노
설사
이전
줄줄
하듯이
한이
##말라
##는거는
있었습니까
있으면서
부엌에
ᄒᆞᆯ
뎅기
모밀
복수
상호
안에는
없게
이파리
쪄서
토종
##어디
##봉이
##안나
##여신디
코로나때문에
가져와서
싶은거
키우면
어딘가
태어났
보건소
스티커
거에서
놈은
더러운
머리는
반가
빌엉
세우고
쏟아
오리지
오자마자
##피가
##하죠
이름나
생각했던
어저께도
줄어들
귀가
뉴욕
뽑아서
수행
온갖
한때
호흡
##료가
##보지도
##한건
##권을
##점에서
##갱이
##다가도
다니잖아
여행이
보내줘
아침마다
그분은
다년
백일
소득
시대에
죽지
터치
튀겨
홍삼
##있을
##인거지
##방울
그거네
제주에
다녀도
제주시에서
간호학과
장학금
네개
다신
다다
데나
보상
사립
서양
송당
숙제
옮기
왔구나
적어도
조는
주게
치우고
현지
##시절
##내가
##체를
##평가
이름형
이렇게까지
아이야
없어졌
먹을꺼
겅허멍
시켰는데
큰아들
가볍게
나요
별론
비디오
시외
이선
자궁
춥고
하진
##있다고
##성에
##자랑
##였으니까
##움이
안되서
육지서
영양제
되신디
들었다
룸메
미뤄
산부인
안하는데
앉으면
오랑
육개
이수과
저고리
탈출
토론
하시고
##하영
애기들은
만나가지고
내려가서
문제를
가격도
표현을
대답을
못살아
봤었어
사난
수의
실기
영등
해나서
##렝이
그것보다
재밌는데
놔뒀다가
가냐
마요
모닝
반장
빵을
선교
에에
여친
오지게
컨디션
##구석
##장아찌
##많아
하고있어
뭔가이
자체도
어렵고
말씀해
시끄러
다닌다고
강한
나거든
나한텐
돈벌
붙이
시국에
죽어서
하든가
##이지만
##고는
##산에
사람들끼리
가지를
일어나는
넘어갈
헤어진
바쁘게
도장
백종
안받
자갈
##구를
##분거라
##리잖아
##죽도
저거는
신랑은
계획이
제주어를
익숙해
고깃집
그곳
레슨
맡아
무겁
생전
어수다
이영
팔자
##세미
알아들어
몰라신디
그건데
애들만
살아난
##하다이
안되잖아
사십분
그쪽에서
농사도
농사짓
잘생겼어
단독
몇천
무수
번인가
서브
신앙
좋주게
##었었어
##이언
##조리
들어가도
결혼도
여덟시
놔둔
데껴
딱지
못하잖아
미련
불면
비상
##거려
##됐다
##건이
##ᄌᆞ
있어부난
만나게
스물다섯
친구들끼리
관심을
바꿔서
된장국
태어나서
게시
공공
낮아
닮지
돌려서
드신
비해
사전
설정
신구
자빠
##말이야
##믄이
##였다고
##ᄉᆞ
이렇게만
돌아오는
다섯개
동생들
스타벅
만원씩
돌아다니고
##근엥에
디저트
샌드위치
기독교
가곡
되야
뒈고
썰매
요디
좀만
##란이
없어지고
냄새도
사업을
기다려야
가성
결과가
고래
수목
장수
전남
풍습
##했었는데
##한거라
##파티
##외과
저기요
맛있을
말이여
들어오지
##ᄀᆞ루
어딘데
이벤트
궂은
몇명
발생
안햄
##고를
##주는거
##발로
사람네
공부가
가져갔
알바는
학원에서
경해신디
확인해
어두워
답장
떡은
말이라
뭐하지
쌀이
오염
월정
자소
타가지고
탈색
##때까지
##환이
##누리
우리집에서
학원도
나라에
부산에서
걸리지
놔그네
뱀이
잡지
짜서
채팅
##쭈게
내일부터
이모는
상황을
상태가
느껴지는
오로지
사춘기
갔댄
겅하믄
내릴
되지만
뚝딱
못한다고
사시
세시
애한테
외롭
이이
잘해야
추운데
테스트
##으레
##거래
##회관
##밥도
끝나니까
어머닌
친정에
자동으로
불안해
만화책
영화관에서
건물이
드는데
멍에
아판
장을
파도
해부러
해가면
회장님
##스코
##알바
아이씨
그니까이
장난이
매직
먹음
무난
뭐만
알거
없습니까
외부
입금
좋다는
##저게
사람이라고
괜찮았어
떨어뜨
겨울이
불렀어
가볼
극혐
냉면
불구하고
샤브
와야지
##지노
##중에서
##혀가지고
##하고도
그건가
만들언
들어가게
얼굴만
사는디
보여줄
안돼요
찾아보
다르긴
모른다고
단기
데이
변화
수시
우체
철학
화이트
##성도
##터가
##끌락
엄마를
들어가기
해보게
생일날
넘어가는
아깝다
무료로
길쭉
나사
말랐
서문
손잡
술만
시나
##라구
##급이
##값도
그러니까이
가지고는
있거든요
기름이
미친거
남자애들
우연히
걷기
높게
무싱
밭은
비와
심부
와플
이억
잘해서
죽게
천지
초기
키워서
특수
하주
휴지
##거니까
##탱이
이렇게이렇게
완전이
얘기했는데
했어신디
사진은
학생이
열한시
안보여
따면
모시고
법이
시금
신도
썰엉
알기
툭툭
하며
##동물
##숭아
그런거야
바로바로
한다니까
세상을
죽어지
된장찌개
멸치젓
교수가
날려
다니다
담는
돌앙
드디어
먹방
봤었는데
수정
순서
월령
저저
줬거든
찍었어
차분
흥미
##는지도
사귀는
꺼내서
해수욕장
스위트홈
갈앙
개로
메고
썼지
없냐
옆이
해버리
##주도
##아이는
##퍼센트
##제비
##달랜
하는것
미안한
그만둬
드라마는
놀러가
고맙다
돌아다니는
놀랬어
가불
깜깜
니트
닦고
받는데
발효
스프
시에서
왔으면
위에는
인공
인해서
일들이
자란
잘랐
준대
총무
탐라
해불
##였어요
##루는
##름에
##누구
얘기하다
똑같지
따로따로
서귀포는
김치도
안나오
걸려가지고
돼도
써야지
않다고
약국
있겠어
##치게
떨어졌어
말했거든
전체적으로
##바닥에
강릉
꺼져
끓이
나라도
밀크
에피
이끌
창업
책은
콩국
황금
##같은데
##오천
사람이나
군대를
##에스티
메이플
끝낭
담을
되면서
목포
상자
세번째
어묵
잘할
콩가루
##르멍
있다면
대박이지
새끼가
올려야
이랬어
공항에
식구가
세탁기
거연
또똣
미나
민트
베스트
세네
임시
자본
출석
##되게
##드랑
##놨는데
##뚜껑
나오게
만나기로
재미난
##라는게
생활비
인생을
아쉽다
받으면서
브레이크
시쯤
오글
탔어
##이오
##났져
##쿠가
##강이
##르면서
##충이
ᄉᆞᆱ아
개념이
영향을
교과
대게
떼고
메모
보자마자
성가
세수
온도
웨이팅
일인가
잔뜩
젤리
좋던데
##실건디
##렁이
##조가
##앞에
아이한테
나는거
모르네
나무에
상황에
식당에서
파란색
구운
될걸
뭐로
배에
봐바
살앗
어젠
절약
##으맨
##로케
##있었어
##줬으면
호미로
그말
만은
번이
벌어야
일일이
주겠다고
줬지
충청
크잖아
##해난
아니었는데
아이덜
오늘이
이서야
##해야되
##이었네
지나가다가
사건이
구역
메리
무지
배로
배는
소를
엇엇
코로
해질
##그거
##겼는데
하고는
해서요
어떵허
누나는
교회에서
당신은
까먹어
불려
소식
왔대
페이
##할거야
아니었
이십육
생각해신디
인스타그램
이백만
해가멍
와이파이
개빡
거길
걸음
다쳤
반도
속도
안하니까
여튼
주름
##반에
##먹었어
지금처럼
보여서
마찬가지고
해병대
겅하
구루마
모멀
번역
식물
어유
어시믄
없주게
육아
잘하지
쳐도
포르
풀려
후로
##게마는
아니어도
그만둔
어우야
말투가
굼벵
됬어
옷에
이수
콩을
키는
하실
헤드
헷주
##먹언
##산을
싫어가지고
도와주는
집안이
카드를
목표가
댕기멍
글자
당당
당한
드리고
묵은
살앙
에이고
입지
탈락
투자를
파트
##도예
##거냐
##자왈
##십디다
##하는지
여기만
아까워서
내려오면
동생한테
사고가
다르다
ᄀᆞ뜬
무섭지
단체로
ᄉᆞᆱ앙
가겠다
규칙
그까
까마귀
남아서
높이
당해
배워서
빠졌어
안갈
이리로
인건
콤플
허니
생각없이
제주에서
나오더라
다르네
김치를
놔두민
가자마자
것이고
단골
된데
마라도
베라
볼래
살은
수돗
스릴
익어
젊어
최종
콩도
탔는데
##페이지
##움을
내려가면
안되는거
그런거는
무서울
보리ᄊᆞᆯ
쇼핑몰
갔구나
기프
다해
소상
싹싹
얼룩
오를
하죠
훌륭
##가라
##보드
##소리가
##곡이
##맣게
엄마아빠
청소년
고맙습니다
각시가
전날에
거품
국립
귤이
났다
떠올
많던데
물통
스펙
신디
아인
오븐
장사가
재난
채널
천오백
할텐데
##거난
##트리
아니었으면
그랬다
여기서도
사랑해
해줘야지
거란
꽁짜
냈어
러브
멜젓
암만
자를
좋지만
주서
##바위
##쪽이
설명해
활동을
나타나
바느질
갈라고
겪어
김선
롱패딩
소못
소녀
씨발
연기를
유독
이론
화분
좋아했는데
살아가
비싸잖아
농사는
행복하게
이만이
무엇을
버려야
생겨가지고
예수님
낮에는
매실
보수
않해
억양이
열어서
이날
인원
흐흐
##인다
##속에서
##타는
##어가고
커피도
순간에
가봤지
쓸데없는
눈만
닮긴
되도
뒈민
드레스
이등
존중
주짓
프사
##혈압
힘들언
그랬다고
음식물
프로젝
할망은
유투브에
이때까지
산부인과
낚싯
도마
무거워
바르는
수산
육회
중이
즐겨
틀고
##구십
##구덕
##도그
##와야
##헌거
아무런
맛있더라고
괜찮애
내일도
사름도
머릿속에
누님
더블
된거야
무덤
서빙
쌍수
썩은
장작
조직
조명
특유의
##저런
##밥이
##이라면
나와요
오래되
##사람은
인생에
했었어요
##이로그
애매해
질문을
갔언
분양
수리
신이
싸지
이네
자잘
카트
콩잎
편하지
해네
##주구
##시게
어떻게해
살아신디
어쨌거나
지나가면
걱정되
고맙다고
다양하게
교무
기여
내리면
데만
떡이
밝은
보목
수요일날
싣고
싶어요
열면
오네
잠들
진로
해피
##다른
##봐신디
##케팅
카페가
주소에
지저분
깨어
뒌장
또라이
말들
오긴
왔나
자는데
주시
해방
헤야
##지라고
##방송
##줬잖아
##무니
##끄는
##채로
##달이
##션이
생각남
모르클
아픈데
워낙에
가방에
중산간
거밖에
때지
사자
오락
유도
자지
즐기
합쳐서
현관
형이랑
##전도
##수육
##준거
##샤브
그거라도
아이템
어디강
같아가지고
가져온
먹으민
지나갈
우리나라에서
인종차별
마카롱
기프티콘
감고
기구
둘은
빵이
이승
장이
통제
포토
했는디
##어치
##라니
##가요
아니주게
아니겠지
##이다이
##주는게
점심을
궁금해서
제주대학교
개봉
고아
귤을
매출
볼링
살젠
설문
앉을
자율
조회
##하기로
이제사
그러한
제주도에는
힘들잖아
준비해야
졸업할
경해난
관계가
덩어리
두들
땔감
마랑
바래
분석
산이
쓰기
영하
오마이
조들
졸려
호랑이
##와랑
##비슷
##왕이
우리엄마
좋아하네
먹어봤는데
힘들긴
해주니까
드라마가
ᄀᆞ레
특히나
과가
넘쳐
대패
맘대로
벽에
비만
사온
조끼
좋습니다
풀이
확률이
##을텐데
##상으로
##투스
##단을
##못해
어떵사
가져가고
##만큼은
연락도
움직이지
십오만
상관없는데
하룻밤
겅햄
계정
많댄
맞췄
반에서
병아리
빨갛
사야지
살잖아
있드라고
팔아야
##서방
##공학
##혔어
다니기
신기하지
했었습니까
시아버지가
간판
거부
거였거든
그네
까먹고
꿈에
뱅뱅
아기가
오거든
온댄
이슬
일까지
자르고
화투
##리려고
##때기
##저나
##왔다
다니멍
이유를
##리스트
부분은
인터넷에서
초반에는
시켰어
평상시
딸내미
보래
봉지
산지
여우
주켄
채우
트리
흑인
##는지는
##치니까
##한거지
##떡도
##왔지
##에서부터
이십구
일본도
장난아니
보라색
줄넘기
가니
과정이
도청
백수
숙박
실은
열일곱
작가가
잘햄
좋겠
하든지
홈쇼핑
흰색
##고도
저기도
코로나로
병원도
오십만원
시집을
검정색
구체
노가다
놨는데
닮아서
독특
들면은
맹질
사흘
오멍
잇지
잘만
컸어
케어
크다
하양
##피는
##이드
##길이
##포가
그런디
몰랐거든
여러분
장난으로
군대에
이랬거든
해산물
샤브샤브
고시
곶자왈
구좌
남들이
목요일날
목걸이
박혀
브이로그
선을
소통
쓰긴
유연
테이크
할때도
후드
##주만
##드릴
##과학
아이언
거기에는
뭐냐하면
문제라
저녁을
헤어졌
교회를
요만씩
갑니까
괴기
내부러
넉넉
논문
말랑
바쁠
사막
세울
영허
하간
했을까
##모양
##실은
거기가서
나오면은
이러지
비싸긴
연자매
스트레칭
가운
걸어야
끊을
나뭇
남들은
대본
마법
배터리
빨강
오프
잘나
주황
통신
핫도그
##으냉
##년생
##덩이
들어왔어
여기에서
아무데
아니고이
가족들이
구멍이
허벅지
인테리어
구글
없던데
할라
할만
##마나
##하자마자
##될거
있었으니까
그것까지
ᄒᆞ고
이천원
궁금하다
서방도
말아라
마당에서
엿날에
후라이팬
네일
다리를
맛없어
보쌈
살인데
성향이
손목
인식이
일출
좋을까
##다음에
##고추
##중의
엄마들
정도밖에
나옵
못가고
미세
봤자
심고
예에
이하
진료
헤마씨
##났거든
##병원에
##꺼는
##격이
##하는거라
재미도
알바할
시원한
속상해
너보다
말게
받잖아
생크림
서고
성이
신선
안올
왔으니까
이긴
장사를
차리고
틀리고
풍선
회색
##부도
##다닐
##안티
##안하고
##주면서
##등록
있지않
골았
곳에서
못행
잠잘
직장을
피어
해시
호기
##ᄏᆞ
생각하기
그때야
없어지는
못해요
유명하지
해야되는
점점점
요만큼씩
골드
낳았
마케팅
뭘까
볶아서
봅서
아스
월달에
학창
##냐면은
##주잖아
##루에
##차로
##냈어
##항공
조금은
이십삼
반찬이
귀엽게
구경하고
보냈는데
쓰러져
스위스
헷갈려
불가능
고릅
기획
꼼짝
낳는
눌렀
먹당
메인
무기
붙으면
사계
상식
안한다
없던
존경
쪼그
청주
햄신가
##렸거든
##류가
##시킨
##물회
##라고도
좋아야
엄마의
들어가는데
들어가가지고
없었어요
작년에는
애매한
믿음
버즈
샀다고
안다고
양도
영수
이기는
익은
일당
츄리닝
탕수육
햄스터
##진데
##하잰
##랑도
##관을
그거고
얘기해도
있을지
많은디
말했다
회사를
자체는
깨끗해
동백꽃
같지는
곡식
근로
길도
나빴
망가
변해
식은
짚신
쭉쭉
##트레
##유가
애기들도
결혼하기
재미있었어
카페도
조심해
웃긴다
가이네는
화나가지고
아맹해도
끼어
내시경
든든
모바
비하면
사이다
시아주
신화
원인데
저축
팔팔
했다니까
##보가
##생이라
##봐라
##끼고
##유럽
이십칠
이해할
좋다이
연예인들
당근마켓
기준으로
오메가
강생이
걔넨
구매
땀이
때난
반을
밤에는
쉽지가
시그
안보고
울언
조정
챙피
하이고
할머
##지름
##게트
##하주게
사람이다
느낌도
나온대
잡아가지고
일어나고
별의별
넘는
다념
리터
배꼽
비니
소로
시기에
업체
오신
외우
웃기는
일하러
좋앙
터져가지고
헙디다
##이백
##대사
##퇴근
##잔데
같은게
이모도
영어는
무서워가지고
맞춰야
사촌동생
맛좋은
가라앉
유튜버
전문가
일회용
구슬
남았는데
년인가
동의
들여서
디엠
분홍
산타
상가
이집
재택
제줏
조가
토목
했지만은
##했습니다
##하며
##꼬박
뭐냐면은
##하면서도
동안에
##이었다
맞추고
모의고사
갔었지
때면
떠들
명인데
뭐에요
앉고
열여덟
일대
최애
풍경
##로서
##난다고
##간은
##태가
맛있댄
이상이
가지러
필요없
소개팅
어깨가
한마디로
현금으로
엊그저께
다친
대개
도새
돔베
먹이는
부려
불런
뽑을
안심
안덕
양치
예정
우영
이엔
좋수다
해마다
화면이
##증을
##등이
그러겠지
있는거지
거라는
아주버
생각나고
조용해
오일장에
끼는
내놔
내린
딸을
상상이
선호
와사
져서
쪼꼼
팔았어
프린
하얘
회복
##쪄게
들어요
있었대
별로야
만들어진
작은거
마스크도
ᄀᆞᆯ아줍서
놀이기구
에피소
갔대
누굴
달리기
먹진
뭐한
보람
열무
집세
포크
##하르
##께라
##헤근에
아니믄
많이들
몰랐던
비행기가
언젠간
가맨
가이랑
그리는
놀다
놀면
들리고
말똥
부두
서핑
올거
완성
우주
잘했다
줌으로
청춘
##튀김
그랬어요
이서난
일본이
그럴수도
가게에
예약을
인절미
와랑와랑
경운
그립
동화
머랜
붙이는
상여
서랍
우스
으아
입에서
접수
쪼개
파인
##렸잖아
##가봐
##했다는
##장창
돌아간
했을때
자식들이
##ᄒᆞ고
어울릴
꼬박꼬박
구독
급한
내에
대는
두린
올해도
쟤네
천재
카운
하려
하셔
##부지
##었주게
##기나
##소연
##용을
##합이
하니까이
어느순간
한국어
취미생활
##버린거
부담스럽
물건을
골암
국물이
됐으면
땡땡
만지
모집
무대
싱크
이사를
자랐
참을
##약이
##때나
##통화
해보려고
갔었잖아
떼어
만남
매콤
반지기
받기
벌면
분들도
뺏어
소리는
손바닥
쇼파
신시
아야
안봤어
알레
여권
육수
이브
입시
잇몸
절편
##있거든
##스틱
그렇게만
남자아이
이미지가
가능한
부족한
어색해
수준이
비대면으로
선과장
콘테나
그떄
대사
로션
목적
아빤
추우니까
팔찌
프라
##시켰
##바다
##베리
유명하잖아
정리하고
인간이
주일에
가기가
놀지
버텨
살찐
안마
콩이
패턴
표시
하수
##구는
##라든가
##주려고
##범벅
##뱅이
약간의
건강해
없었을
케이블
온라인으로
로맨스
개고
고팡
되겠구나
때리는
못했는데
문자가
밑에는
붙을
옥상
파랑
폭도
허나
##부리
##군이
##대장
##제한
##이라가지고
갔다왔어
받았거든
답답한
경도
골라서
구만
달만
도박
독새기
반까지
밭디
신뢰
싶었거든
육학년
재배
컵라면
트렌
##행이
##두는
우리처럼
힘들겠다
어린아이
않았냐
가까운데
차가운
고모네
고씨
근력
났을
년만
년째
당분
뭐다
박수
사라고
섞여
신라
준댄
##인거라
##밭이
내가이
이런저런
돌아갈
먹을만
결혼해
살아계
잘못하면
저녁은
가르치는
웃겨가지고
기술이
항아리에
탄수화물
기말고
길에서
돌을
멕시코
불도
손질
온거야
외양
잡았어
적에
전지
주어
혼번
##그룹
##비만
아닌지
학년이
소리지
시험도
게임은
아닌가요
어쩌면
개인적인
기도하고
다이소
물리치료
주머니에
트레이너
갈거야
굽는
끓일
돈에
따지고
말라는
면이
보리가
빙빙
수원
영해신디
일하는데
전분
절로
제왕
조근
키위
폐쇄
##산도
##멘트
먹었나
헤어질
손님들이
제목이
것과
것인가
달은
동광
딸만
모물
못쓰
방은
스쿼
열정
인당
일하면
입어도
자서
장로
제기
좋덴
증명
지낸
진통
토신
헤당
##해줄
##디는
##주얼
##래미
##르몬
##받아서
##점도
##ᄃᆞᆯ
##늦게
지금이야
모르면
말해야지
남편이랑
가시리
있으니
어어어어
교통사고
비빔밥
감이
넣어도
달콤
맛으로
맹심
몸으로
수시로
싸웠어
자켓
즐겁게
집만
참외
쳐야
할건디
##니아
##시렁
##벌이
##롱이
이렇게도
제주도민
알아가지고
때는이
되는거라
내용은
노란색
반응이
가지만
그대
댕겼
말들이
매는
면도
방해
배그
봉개
약은
이거든
저가
주난
지우
카지노
탕건
##던게
##혼자
##패스
##형은
##곡게
사람이면
살아나
여름방학
닮은거
자기네끼리
시어머니는
컴퓨터로
##그래서
연말에
세월이
뜨개질
월드컵
갈면
걸으면
놈들
미싱
발을
부는
싶지는
이력
찍엉
키고
한약
##지더라고
##다녔
##당보난
##원으로
##짐치
제주도에도
누구누구
이것은
거도
걷지
공통
그늘
등에
망해
먹은거
명이나
모이는
새색
세배
자막
조팝
중에는
향신
허단
##허벅
##졌어요
##배우
##됩니다
올라와서
안해여
고생을
색깔도
기억나지
삼촌은
이백오십
사회생활
생기니까
잘생견
바쁘고
관광객들이
사모님이
초콜렛
놀았어
되주
둥글
미쳔
발음이
빠젼
사인
이일
##반짝
##회에서
##발을
##쳐도
##담을
그거나
여자한테
맞추는
아팠어
하이튼
가기도
강요
누룽
대우
되부난
디도
리그
바에는
사게
우승
일이라
##니어
##마루
##당으네
##그레이
##째로
##잡아
아이랑
게난게
똑같은데
있나요
아우야
큰일나
키워야
정확한
스타벅스
포르투
신시가지
너처럼
동굴
먹거나
먹겠다고
무언
미스터
사정
알기로는
욕하고
처방
치면은
화해
##할때는
##래가
##스름
##서예
##근무
##질러
그러긴
얘기했지
친구의
언제쯤
보여줄게
무서웠
직원들
본인은
지키는
김매
뜨거
뭐해서
민족
붙이면
싸다
의대
이민
이사람
적극
주전
코치
##나가지고
##고요
그러거든
지나간
중국에
미국에
신랑도
카드로
전기장판
편의점에서
가이네가
##년도에
할아버지도
괸당
그가
내면서
누르
마씀
방석
엇인
잡채
전자기
합의
호수
호쏠
##줄은
##면에
##보젠
##쪽은
##내야
##손가락
그래부난
##수다예
안해요
아버지한테
특별하게
트라우마
교감
미팅
민원
복싱
오젠
인물
일가
전신
전투
조만
줘가지고
청수
퇴원
판타
해사주
##며느
##브리
우리과
누구를
이러면은
재밌다고
비슷비슷
스트레스가
월급이
깨워
부신
분을
실화
엄지
오현
일부
청국
해에
##손으로
##적도
괜찮게
있을거야
먹으믄
만들어가지고
핸드폰도
##들한테도
앞으로는
끊어서
데뷔
미운
뽀뽀
숨을
이신게
인연이
쫓겨
##했져
##시티
##오랜
##따리
##ᄆᆞ
##애플
그렇게하면서
이름이나
재미없어
삼십오
예전부터
##명이서
갔으니까
권사님
넘기
느려
대여
독한
될텐데
로봇
막막
많으
맞으니까
모으
부애
사단
상을
생이
싸니까
아궁
이연
자도
지져
쫄깃
천사
콩죽
해물
행운
##시킬
그거만
해서이
좋아지고
같아도
나가게
돌아가시고
신기했어
기본이
소금을
바꾸는
이름아빠
간단한
ᄄᆞ로
어쩐지
같기는
고내
대파
미드
스쿠
쓰면은
안살
않읍니까
연하
영원
영어도
외에는
위치가
조왕
출퇴근
킹덤
투어
##다리가
##들랑
##끼리는
##달래
##넣고
그런식으로
들어완
여자분
그랬었지
갔다온
시작합니다
사진만
중간고사
확실한
할거냐
할거면
카톡을
날씨도
않으냐
이름언니가
남주혁
난리도
많구나
벌러
짐을
취해
피로
현명
힘도
##하듯이
##시라고
##바구니
##소리를
##린가
##내지
맞아마씨
좋아하면
얘기하는거
##하지마
다섯명
거기에다가
하여튼간
겅해그넹
다행이네
동그라미
강정
꿩엿
대비
막장
아토
오렌지
원작
집이랑
포인
플레이
해부니까
##수당
##느낌
##비에
##산은
##동을
##헙니까
##현이
그렇군요
맛있잖아
어떵할거
먹었었어
카페를
받는다고
너희들
아이디어
깊이
도배
보이네
비석
시가
씨유
오누
이인
일하다가
잇곡
출장
##됐다고
##하자고
##둬서
##임이
##판을
##낫저
내려오고
##적으로도
게임도
다르다고
않았고
##다니면서
아름다운
부작용
계셔
끼면
된장에
목사님이
비속
사겼
세미
안봔
야근
양보
왜이렇게
인거
자른
잠바
장면이
지정
초창
##부장
##회전
##내면
##절이
##눈썹
그랬으면
이러는거
시작하니까
김치가
얘네들이
교육청
가능해
해가난
도둑질
방향으로
엊그제
심부름
늙어서
땅은
봤더니
부니까
샀다
양쪽으로
이처럼
자라고
하천
##부렁
##바디
##셔츠
##법이
##이라고도
재밌긴
세상에서
남편한테
시키지
해보는
형님네
표준말
건설
뎅겨
동호
봐주고
성실
싶대
없었다
외출
파워
##풍기
좋아핸
말해줬
시작하고
한다면
겅허니까
기본으로
마을에서
요양보
렌트카
반짝반짝
같대
거멍
걸쳐
겅한
껴서
느껸
말인데
발톱
비하
사주는
소낭
쉬지
어뜨
있지만은
줘신디
지만
타투
##부들
##다시
##치킨
##회가
##얼마
먹어지
그리고이
##이랑은
있었단
올라올
시작했어
하루하루
정신을
점심에
잊어버렸
##야되는데
텔레비젼
간거야
거지만
넘엉
니는
동태
때보다
땡큐
말아서
멘네
백록
산소
성적이
시발
싶댄
언론
유통
일박
일이고
입춘
죽일
질려
횡단
##나민
##라라
##터카
##치에
##반찬
##포로
나오나
없고이
하루가
하루만
무서웠어
아파도
이녁이
과장
꼴등
됐으니까
세련
솥뚜껑
알러
엘에이
예고
오는디
일러
자부
작곡
찍언
커가지고
태우
터키
푸른
##인지도
##주민
##복지
어머니랑
비싸네
비싸니까
달라진
겅해그네
해봐도
호텔에서
모여가지고
돌아다녔
어땠어
존댓말
거하고
됐구나
들에
말이나
못나
스튜
얇아
양을
오냐
외숙
요로케
우물
있덴
잘하네
쟁기
절반
조별
주스
한계가
##요가
##났네
##그락
##운드
##양도
##히지
##핑크
먹어져
나오난
이시냐
##었나봐
맞다게
무섭고
##교육과
하느님
겅해야
계신
꽃이
돌리면
마리가
말이라도
몰아서
방아
법을
보충
살인가
없잖아요
저요
##오는데
##떡을
##개도
어떵할꺼
할머니들은
어서져
재미있고
재미있긴
사십구
알았수다
어저께는
많았지
이만큼씩
계산을
봉사활동
태워다
장애인
이태원
가늘
가더라고
귤도
귤은
날에는
논술
동료
발언
법원
분식
솥에
신을
옷가게
운명
이에스
임플
쥐어
즐거
트러
##리에서
##주난
##오래
##결혼
우리반
하니까요
가져왔
사진으로
이해해
힘들어가지고
누나도
귀찮고
순간부터
##쿠다게
가보자
등록금
입구에
마누라
국도
사면은
산방
살까지
수분
수망
실력이
으이
일하면서
잇잖아예
죽도
해군
해노난
##이게
##저리
나가도
해도이
운동할
유산소
공식
낙지
내신
듬북
뚫어
막고
망할
문신
뭐시기
방앗
시쯤에
지낼
쪽에는
춥지
##더러
##지거든
##그넨
##개로
##새우
##헤여
##낫주
좋아진
내려간
없는게
나이트
자리도
이후로는
깨끗이
전기세
스토리가
가루로
시원하게
조카가
바깥채
사슴
올때
주신
착하게
총각
헌댄
##어시
##구로
##마니
##처리
##치로
아니언
이름처럼
자기들
닮아마씨
만나니까
병원이
둘이만
버스에서
냄새나
고구마도
챙겨주고
눈치를
들었어요
태어날
정보를
구구
김씨
끝내고
노후
버튼
안네
엑셀
온몸
올렸어
장르
전염
촉촉
통해
통장에
포켓
##겠나
##했었거든
##이러
##투맨
##드래
##허라
##복을
별로였어
이십팔
아프게
드라마도
고구마가
알았으면
받았던
생각하면은
빠져가지고
자격증을
지나가면서
임플란
같다는
끊겨
더덕
못하네
배민
신분
쓸어
엘지
파는거
한의
##길로
##읍니다
##겨울
그래신디
하는가
##들이영
그러니까는
제주여고
결혼하는
만나도
사십만
보난이
다행이지
없었으면
움직일
까는
뚜렷
박지
세워서
속눈썹
순위
육지도
이씨
이뤄
장어
장비
제로
키와
파일
화이팅
##났잖아
사람처럼
많이는
이런것
좋아하긴
먹어부난
무슨거
맛있어요
보내지
사이에서
부분을
주제로
오일육
케이티
고무신
싸이코
ᄑᆞ
나긴
들긴
모은
빌어서
씨는
이스
입었어
천연
혼나
활발
##렸네
##수술
##아래
그런다고
##으로서
생각했을
모르겠는
돌아가실
제사도
고구마는
##이었으니까
화장실도
최고야
올리브영
고속
로제
말한거
명작
발에
소세지
실업
실시간
염증
유재
추웠
컬러
코너
탄탄
통째로
티브이
팔잖아
한달에
해버려서
##지면은
##당은
##들락
##드리고
##았고
##레인지
##담에
하면서이
나랑은
걱정을
##했던거
좋았고
말로만
구석에
아무렇지
갔주게
것보단
들깨
마마
무식
새마을
알거든
이어서
인수
작아서
잘사는
저추룩
편하긴
##구도
##었지만
##희가
그러던데
작년에도
알려주고
며느리는
전기차
삼백육십
이루어
ᄌᆞᆯ
공대
넓게
넣어가지고
달랜
돌레
렌터카
몇일
민폐
반만
빨래도
소원
시아버
아장
안먹는
장점
정작
트와
핸게
헷주게
현미
##피아
##전은
##시녠
##계획
##건고
옛날처럼
저기는
사람들하고
돌아올
모르겠다고
고기국수
사랑이
귀찮은
만든거
##들한테는
빠져나
마트에서
형제가
헤낫수과
숟가락으로
평상시에
트로트
파인애플
가는거야
개미
경헨
말리고
맞출
볼거
소뭇
장모
출산
치아
##할지
##시락
##대매
싶어신디
상관없이
계획은
수영을
경찰이
친해지고
그리로
뭐하니
쳐다보
심각해
동창회
바꿨어
ᄆᆞᆷ
개맛
개의
다크
등교
맨투맨
못자
받게
봤으면
실천
싫으면
알죠
언덕
연필
이장
잇주게
접근
트위
폭발
하연
한살
##어신디
##자루
##여자
##력으로
##태기
##조로
언제나
비행기표
삼춘이
확인을
잃어버린
햇빛이
사이즈가
기생충
가버리고
교도
끓인
마는
멘들아
명이랑
못사
바껸
분이면
서부
신중
싸는
오셨
읽으면
직전
폭삭
##거리고
##이자
##입을
##뚝뚝
##량을
여기다가
떨어지지
준비가
하기에는
ᄌᆞᆸ
신입생
육개장
끓영
넣지
돋아
연합
잘하는데
편할
해부
호르몬
##역이
##동은
생각행
음식에
떨어젼
돌아가면
ᄀᆞ찌
올라가야
축구를
ᄀᆞᆯ앗
무섭게
마늘장아찌
할꺼야
슬프다
어뜨케
ᄉᆞᆷ
그물
기라
꿈도
농촌
단점
라오
말든
뭐하면
봐줄
설거
시장에
실프
싫었어
앉는
알겠어요
오지도
의논
질이
집까지
침대에
##하려면
##저녁
##선으로
사이드
일어나가지고
외국어
그다음에는
모두가
해녀들
입맛에
갈옷
끄고
끓이고
났지
닮앙
멋져
백원
복숭아
살수
생생
쇼미
스탠
스킬
아시는
어땐
여상
이겼
인스
조미
좋겠다고
천백
터져서
터지기
하대
햄댄
후딱
##만도
##당한
##봤다
##경을
그때쯤
남자들도
누구가
보여주는
하멍이
갔을때
앉아있는
받았을
이디서
바꾸면
저희가
콜라겐
경비
드려
불에
사긴
와닿
은퇴
죽언
치면서
확정
##직한
##화도
##형으로
##하는건
나가라고
그렇지요
동네도
찾아야
달라져
핸드폰에
ᄀᆞ치
때까지만
곤란
돼지가
된덴
땡기
마카오
맡기
뭐했어
셔츠
수염
시체
아동
월부터
있데
제공
찬양
철이
첫사랑
팀장님
팔려고
##가사리
##만의
##치즈
##치면서
##영업
##바웃
##쪽에서
##중학교
##봤어요
그렇습니까
나오던데
##인가봐
가고싶어
아아아
하거든요
까먹었어
잃어버렸
남았네
강아지는
드림타워
겁이
놀면서
눈치가
명칭
뭐하나
살자
상상도
쌀을
알겠
작성
장독
중딩
한강
형편
##구정
##씨도
##차게
##짐이
먹고싶어
시간이면
갔다완
성격은
불러야
할까봐
넘어가고
가능성이
이쁘지
당시엔
부모님한테
기지예
뭐하냐
심각한
노형에
단어가
런던
문구
받으려고
아멩
오르고
전설
튀긴
프레
홈페이지
화나서
##었냐
##했었지
##기업
##였다가
##장애
##관에서
어디에서
나오더라고
중요하다고
청소를
없으면은
마을이
확인하고
조그만한
자유롭게
지켜야
정부에서
신천지
갱년기
교실
네명
당면
무꺼
믿음이
바둑
싶으니까
양쪽에
의지가
저금
점수가
차롱
해다
##리긴
##준대
너무이
##하는것도
얘기해서
##지는게
아니라게
선생님들도
살아지
살아부난
비행기를
조용한
티비에서
아깝지
겅도
광양
그람
끓이는
덮어서
동짓
드론
맛없는
매점
뭐핸
반성
별도
시국
잘한다고
전인가
치지
퀴즈
틀리지
피드
호랑
##하잖아요
##오천원
##께요
##으로써
살아있는
우리나라도
점심은
삼촌네
쳐다보고
가더라
간다는
감수
감시
깔아서
꺾으러
사네
시방
올챙
입도
줬잖아
집들
참말로
초보
##긴데
##모르
오빠를
겨울방학
가까우니까
요거는
친척들
개밖에
놓민
망했어
명상
목적이
못허고
바라는
밟고
방콕
새가
새별
성질이
아그래
얌전
어짜
어신게
육이오
정류
정책
종종
죽인
지식
찾았어
크루
횟집
##구에
##러스가
##티슈
아이들이랑
있는가
갔다와서
전화와서
가져가면
이해는
했거든요
데려와
시집갈
삼천원
여자애들
본인도
백종원
가볼까
간세
기르
꼭꼭
꼭대기
냅둬
놧당
달력
먹나
명밖에
밀고
베이스
설러
쓰다
여는
영하난
정년
짜파
차갑
햄신게
##안을
##갔을
##대학교
##축제
제주어가
맛있던데
느낌이야
사고싶
알았습니다
티비에
깨끗하고
많았거든
주문을
바쁘니까
어르신들
비밀번호
담그는
완벽하게
갔는지
개강
계기가
기뻐
나였으면
달라서
담보
뜨거워
멀지
몰람
버련
봤었거든
상제
솔벤
수지
쌍둥
연출
일자리
입장이
있잖
장인
천구백
페이지
호불
화산
##줍써
##젱이
그래가
언니를
힘들었던
한국말
가이한테
그만해
할아버지들
넘어간
생겼다
말씀이
그릇에
한마리
담당자
ᄂᆞᆯ
곤ᄊᆞᆯ
동선
드세요
복도
뾰족
샀잖아
않더라고
열세
일부터
자제
피를
했덴
행으넹
##어떵
##신기
##가는데
##한번
##락이
하면요
저기가
만나자
먹었었는데
끝나자마자
하루를
삼십만원
보리도
사십대
생겼다고
생긴거
해준다고
두꺼워
좌우명
무싱거
공기가
과정을
김포
까진
눈사람
대추
됐던
모영
물티슈
부츠
붙는
쉬어야
쓸모
어둡
오니깐
우뭇
주멍
주겠다
집합
찾지
퀄리
하크라
할려
##부부
##박한
##접종
힘들면
##버리니깐
부르지
스물여섯
##나무가
호텔에
다이빙
요망진
응급실
각각
끝도
네살
담은
마르
뭔지도
버선
변호사
봤구나
생으로
실퍼
심장이
유자
출연
취향이
펼쳐
##감은
##많은
먹어사
올라오면
다음달
만나자고
말해줄
그것밖에
수도권
싫어하고
지나니까
##이었으면
챙겨야
한테도
어두운
혈액형
기운이
콤플렉스
뷰티
손절
송강
실컷
싶지도
애완
예언
오피스
워킹
일이지
잘되고
책에
퇴사
폭포
흐름
##리라
##몬드
사람인지
##겠다이
##인데요
##거라서
스물세
받았다고
인생의
교회가
허영으네
가격은
지원을
테이프
예민한
롯데리아
신세계
때릴
문젠
백신이
소용
있길래
정리가
허긴
##가네
##거다
##정신
##정보
##과를
##릅니다
하는걸
엄마야
##는거고
먹고싶다
보여줬
된다면
누나랑
나서는
해봐봐
생기지
직장인
다음날에
강해
객관
걸령
기말
나맨
달이
대부
디는
매워
보기도
신체
어째
없수다
전교
조도
픽업
흘려
##지원
##우난
##노래
##조차
##낫주게
좋은지
서울도
가지면
바람도
인생은
도와줄
##ᄒᆞ곡
반찬도
선배님
하나님의
멘들앙
유기농
주짓수
그야
꺼야
담요
먹더라
무는
벌엉
보급
비도
비율
세대가
아꼬
웃겼어
원장이
읽어야
주더라고
지진
콧물
크기가
하곡
햄수과
##러도
##노니까
##세를
##적이야
##놨다가
##들이고
들어봤는데
자기랑
이러잖아
보리를
에이구
말하는게
말하잖아
학원에
농사지
부분에
자격증이
공책
나에
되잖아요
따져
보기가
보기만
볼만
빌딩
예식
음음
제원
주유
주식을
퍽퍽
허다
##터레
##령이
##졌댄
##티에스
##불곡
##넹이
어떡할
관리하는
예예예
고스톱
날을
모시는
모으고
밭일
배낭
상위
신창
심어서
쌀도
올래
외할아버지
일어서
한의원
했죠
허켄
##분만
##들면
##말앙
##관은
##실꺼
##놓으니까
사람인가
면허증
새색시
고혈압
공산
많지는
백중
보리는
오우
욕도
인맥
자영업
지적
캄캄
해양
허주만은
흙을
##스랑
##커리
얼마야
학교에서도
아까부터
있지요
나한테만
ᄒᆞ게
재밌고
보내주고
삼십년
카페는
사랑니
화장실이
그나저나
방법은
강의를
배고파서
삼사십
거리는
걸까
망한
모다
부풀
안헤
않은거
올게
찌고
차량
철저
팔이
하겐
화요일날
##거가
##떡이
##장하고
##읍디다
##미로
##재를
##프라
그때그때
어디니
엄마들은
이러니깐
만나기
나왔어요
사진찍
가지로
걱정은
어른들도
배우면
좋다게
아줌마들
들어와가지고
이빨이
오르막
어짜피
고칠
곧지
까끄
될건가
두달
메르
못할거
박보
백삼십
사소한
소송
안하는거
애정
어시면
이라서
익으면
출입
터지는
##철에
##아근에
##방으로
##제기
그러려니
하지요
이서도
아들들
사투리는
다행인
늦게까지
안된댄
선배가
사기꾼
텔레비전
시커멍
그램
깔려
내로
당하고
도랑
돌릴
맛잇
뱃살
살기가
신의
심하지
알긴
어신가
위생
있주
졸졸
증상이
차근
참석
채우고
해먹어
##고시
##터를
##자라고
##차이
##겁니다
사람인디
맞아가지고
하고싶어
들어가잖아
다니던
살아요
아침에는
들어갔다
지네끼리
신발도
오리지널
그루
매력이
목수
벌겅
병에
삼계
수강
스노
알겠는데
요만이
재고
집단
특산
패러
평평
허기
##리즘
##하겠어
##말랜
##하는거지
제주말로
어떻게해서
문제인
경우에
해보라
육십오
어머님이
키로에
어이없어
##레이션
가방을
좋으켜
동문시
건조기
씨씨티비
내후
똥을
띄워
멕여
못허여
문도
발라서
보자고
수녀
야생
어허
엇이
외가
접어
좋주
코피
##으며
##해질
##것은
##년대
##모는
##불이
##눈이
이렇게하면
맛있어서
재미나
나온댄
시험기간
자기네도
않았지
겅행으네
아저씨들
들어왔는데
##ᄁᆞ지
뜬금없이
영수증
갔어야
같았어
나막
낭비
대여섯
많으니깐
맞죠
멩지
물허벅
미신
믿지
반전
발가락
보염
보였어
부런
살래
순진
올림
입만
있더라고요
지옥
##하시고
##테일
##표를
##듣고
올라가지
그랬언
고등학교때
초등학교때
스물일곱
교수님한테
정리해
금액이
거여서
겅한디
경유
끊었어
넓고
노니까
니도
말았어
먹더라고
방사
살라
여럿
이라도
있겠네
잊을
잘되는
정문
줏어
착하고
타자
한덴
해그내
##운전
##헌다
##웠다
##체로
하지말고
느낌인데
재밌더라
어릴때는
않았습니까
화장실을
보이긴
않은디
라면을
##버린다
미친년
친정어머니
지역에
친해진
중간중간
감정을
고란
기존
길렀
내밀
달러
담가서
맞춘
물가가
보기는
볼수
사범
십억
않에
영핸
와부난
원으로
이다
장롱
정시
조언
짐이
타니까
##어지고
##마냥
##었다는
##사친
##미니
##립니까
들어보고
사이코
프로필
않았을
해보세요
감자탕
얻어먹
향신료
갈려
갑갑
겁나서
구들
까고
던지고
뜯어서
반품
방구
배에서
뽑은
입었던
장단
조작
취한
패드
흥분
##인에
##보랜
##와신디
##아는
##르민
##허니까
##개는
##꺼지
좋아져
나오면서
재미있겠다
외국에
미친놈
그림을
번째는
안됐어
뚱뚱한
가버렸
겅했
고대
극단
다쳐
딸들
땅도
모이면
뭐햄
민주
반납
붙인
사젠
솔솔
수육
싶진
썼거든
잘했네
잡곡
장도
컨텐츠
탄산
환승
##거랜
##거에요
##갈이
##긴다
##교사
##소년
##쓰는
##덜도
##초가
##뿐만
이제이
거기랑
그렇군
나오라고
원래가
많아야
가족들이랑
있나봐
미리미리
언니네는
약속이
남자애들이
전세계
창고에
감옥
거같아
겹쳐
경로
납읍
놈들이
메세지
설계
안했지
여신
일한
일인데
죽음
찌꺼
크는
평대
품절
했는
흡수
##났댄
##치기도
##회를
##볼래
##꾸나
##애들이
그런걸로
제주도말
올라갔다
나왔댄
보내준
알바하는
아프댄
오십대
화장을
했을걸
생겼네
좋았다
아닐걸
부모님은
마루에
가마니
트러블
갔단
같네
기쁨
김은
꽉꽉
나기
못먹고
신은
신촌
영어가
왓챠
울멍
파고
학기에
##았나
##코올
##좋게
##클럽
얘기했던
만들었는데
가이드가
말하는거야
사투리도
사름덜은
자식을
어쩌구
최고지
벌써부터
청소하고
##수게게
시원해
상담을
이천이십년
바리스타
평범한
아이언맨
가신
구할
뭐할거
받는거
보랜
섭취
수선
였거든
우려
원두
입장에
통일
##수에
##버섯
##와그네
##림이
나가가지고
하지않
괜찮았는데
시험은
말하자면
하더라구요
다닐때
사라진
잊어버렸어
일어났는데
똑똑해
이삼십
깨져
났네
낮잠
년이면
댄스
디스
랜덤
마차
말리
말인가
멕이
못먹어
붙고
어벤
외제
욕먹
육개월
장판
조짚
줄려고
책상에
할로
##가기
##크가
##회도
##써게
그게이
이게이
요즘이
그렇대
아직까지도
이모티콘
여섯시에
관심도
주말마다
간호사가
표준어로
도움을
좋으크라
엿날은
만드는데
미래를
사대부고
자소서
거일
거세기
끊기
누르고
닭을
등이
따듯
라도
메께라
뭐라는
받쳐
발랐
빵도
소망
윗세
입혀
줬다고
챙기는
추렴
추자도
홈트
##렸던
##다시피
##직원
##서로
##실도
##싫어
내가지고
들어왕
들어있는
좋아한
잡아당
다녔잖아
모든게
고맙수다
것부터
고치고
공을
까지만
나쁠
낳았어
높고
대도
말인
부러운
성님이
순천
앞뒤
여중
요세
원밖에
재발
점프
팝송
휴양
힘으로
##마늘
##들여
##들어가
##정한
##오세요
##드렁
##잔아
있어봐
이런걸로
친구들을
정도에
아니라는
와서는
한국이
말하라고
##더니만
스물네
생일선
일어났어
마찬가지로
강아지를
주민등록
무한도
조만간
곳을
네네
당하는
동전
뛰어가
밀면
밸런
보나
보진
사물
열여섯
예스
와그냉
왔고
우의
이파
흔한
##자네
##기랑
##악산
##불로
##절로
이름보다
나는디
제주의
옛날이
솔직하게
그만둘
이야기가
주제에
오름도
담배도
장사하는
살았어요
상하이
강력
구별
국을
길은
날개
다큐
다리도
맥날
산으로
숨이
안갔
어학
어리고
연기가
이딘
이땅
정형
중삼
직전에
책가
통계
하카
확률
##있언
##인의
##그랑
##보잰
##역을
##투리
##봐야지
##포트
##살에
##달리
##능이
아니꽝
이름님
없어부난
선생님이랑
서울이
언제지
알바하고
먹었고
겨울에도
연락하고
해봐서
챙겨서
저번에는
마시면서
해줬는데
메뉴가
뭐였냐면
징그러워
시금치
낫으로
너이
다라
달도
신서
였나
오그라
욕하는
있져
잡히
캐리어
통시
##로록
##사게
##오가
##말라고
##루룩
##저도
##동도
##땡이
돌아온
그랬대
가면이
전화하고
보내서
끝나야
육지사람
소리만
다녔거든
인정해
신청해
해봤지
신부님
트럼프
거실에
꽃을
난예
달랑
동사무소
뒈면은
살꺼
악기
여신디
이를
잡안
재워
정장
졸바로
짜게
찜질
책으로
해줜
##부에
##레도
##끄만
하고예
나오는디
올라강
서울말
##이네요
수업도
살았을
자신을
심각하게
간단히
퇴직금
프로젝트
모바일
거였
국회
그럭
당일날
똘이
무도
보는디
부렀
사나이
상어
선이
싫을
안한다고
이었어
일번
한건
해시믄
##줘가지고
##은요
##자락
##졌구나
##포도
##공장
##옆에
없어질
갔다오면
말하다가
겅해난
##대가리
호박잎
간병인
가리고
겉에
과대
남도
낫다고
뒷바
드셔
메가
베는
보기에
셀카
자치기
잘잘
조밥
창호
테니스
평일에
포항
하와이
##놔도
##트롤
##밀리
맞아도
나가지도
해가지고이
에이비
프로가
졸업하면
않았던
이름한테도
요거트
통화를
틀어놓고
피해를
엿날엔
타이핑
제이디
보드게임
브로콜리
충청도
겅하지
기와
날만
내에서
되겠
불렁
사먹고
심는
쓰네
엿기름
원망
의도
주네
##지역
##자의
##하주
##통을
##적삼
나가기
들어가면은
힘들어도
ᄒᆞ난
왜냐하면은
보내줄
말했나
소금에
방법도
추워가지고
가불고
간격
겠다
꼬치
나라는
남지
단어를
되니
들면서
말레이
목도
민증
봤으니까
사달라고
세운
소변
시술
실용
어려서
에다가
영하니까
욕해
울지
이래도
자그
주관
줬으면
진단
치러
호두
##있냐
##었었는데
##줄을
##들엉
##내려
##백이
##력은
아니었고
얘기로
알아도
먹고살
##주게게
이러한
많아도
에이에스
##시간이
하게끔
##이었을
신경써
신경질
불러가지고
에어프라이
다이어트를
유투브로
목표를
##그러면
가실
가겠지
값도
듯한
말이고
식개
쓰는게
안지
어리니까
왕이
자손
잠자는
주젠
중단
태우고
##미안
##쌤이
그럴거
알고보니까
중국이
나무도
보이게
##스럽고
이쁘고
바닷가에
간식으로
겡이
경하고
남으면
내말이
다다다
도련
부스
빠지지
엇수과
오겠지
육군
잊혀
줘봐
참새
천막
춘천
춥다
코스가
팽이
편견
해수다
##란드
##소는
##욕이
##갑니다
##누나
아니었나
맞아마씸
##까지가
오빠들
보니까는
그런거에
생각나는데
신고를
취업을
번호를
부끄러워
카카오톡
가디
개이
게면
깡패
논란
된단
뒈어
뒤에는
땄어
또한
매날
먹주
민감
배웠어
부리
사만원
상사
씻는
알라
얘들
자르는
주도
죽었다
탈퇴
하다고
행이
##하셔
##물고
##였던거
##노무
##열이
어디고
남자한테
다니게
선생님을
한국은
##적인거
만원짜리
않았거든
살았거든
사랑의
그쪽이
집안에서
##시켜서
지원해
##해져가지고
예민해
해볼게
유월절
ᄐᆞᆮ
가리는
견뎌
고파
관음
기상
넣었는데
두리
멋지게
명사
미지근
부장
생존
씨앗
안에서도
오란
옵션
인바디
자리는
제거
주곡
줘라
집인
찍었는데
추어
해신게
햄쪄
헛소리
후에는
##모도
##낭이
##대랑
##대문
##삼춘
##링클
##블릿
나가는데
받아야지
안돼서
데려가서
ᄀᆞᆺ
일곱살
싸우지
시어머니도
애플워치
런닝맨
삼계탕
가버리면
강제로
다하고
맙서
뭐했
복귀
비위
삐뚤
삼아
옷장
잤는데
저한테
조수
터지
행게
헌덴
혈관
##으려
##란히
##사항
##모습
##층에
##뚜기
먹고이
학교로
돌아가멍
신기하네
버스도
친구들하고
할까요
경찰서
포기하고
잇어마씨
보인다고
절간고구마
오마이갓
백록담
새별오름
고성
링크
못찾
번지
보장
붙엉
삼간
성판
세고
시멘트
심방
약대
웃을
유부
유모
이익
정색
찍으러
##야끼
##거여
##교수
사람보다
생각났어
먹어봐야
정도야
끝나지
했지요
병원은
사이로
없었나
움직이고
앞으로도
선택을
배송비
세트로
같았는데
농사가
딸들이
때라도
베어서
봤언
빠르고
연수
오더라
이종
회장이
##목을
##인으로
##아방이
##연금
##방아
##모레
알아봐야
괜찮대
괜찮던데
이서나서
나왔대
중요한거
해보라고
가격을
니네가
멋있게
거짓말을
무릎이
그추륵
꽁짜로
갔더니
넘었어
놀라서
데려서
되지도
말입니다
매너
불빛
어치
연휴
옆에는
오도
왔더라고
잘된
잠은
타코
하켜
하꼼
할수도
회전
##스카
##스팅
##배송
##준댄
아이네
있었던거
이제는이
성격을
커피가
예쁘다고
나라의
보다도
미친듯이
관련해서
하당보난
감독이
베이킹
오래됐어
ᄎᆞᆽ
싱가폴
나대
든다
막힌
배신
설득
소나이
순한
올리지
지면
통으로
햄져
##었니
##그는
##쳐야
##대한
##딱지
그러냐고
얘기핸
가져가는
되고이
어서도
저녁에는
고양이도
봐봐봐
받았다
오백원
시절이
재료가
농사짓는
대부분이
강하게
그닥
무의
사겨
사극
성복
싱글
싸원
아으
외계
입력
주물
찾은
터지면
학사
힙합
##있니
##남자
##적이다
아니난
그때서야
모르는디
이름이를
기억안나
누구였지
이상한거
다섯살
해주는데
이모한테
청소도
다이아
개좋아
건이
공중
관종
나밖에
당시는
또는
만듭
맞췅
모을
뭔디
미어
보잰
보따리
불르
뿌린
성인이
심엉
연상
오자
오학년
일시
포트
했냐고
##났다고
##반은
##느냐고
##비싸
사람이라서
있고요
좋은가
어떵하
누구니
돌아와서
안되네
거난예
잡아먹
없다니까
편안한
막내가
요양원에
죄송해요
억울해
최근에는
시어멍이
와이프가
강이
그는
닮았다고
도중에
두불
뒷날은
레스토
목도리
뭐나
벌려고
비형
스벅
스팸
아울
액션
예체
오티
와요
완젼
유형
인사를
종아리
차조
칠팔
파이
팔천원
한옥
햄시
회를
##가나
##해그냉
##분들이
##게도
##의가
##허는디
##저럭
##편에
이름인데
나가잖아
##지는디
집에서만
신기하게
좋아하는거
해주라
##아이피
선물도
신발을
선배들
선배들이
인사하고
끝났는데
불렀는데
프로그램이
언젠가는
지키고
특징이
알레르기
성판악
국은
기를
낳으니까
데에
동글락
멜론
몰르고
백설
보던
숫자가
시켠
신는
신나게
영이
옮길
장물
직장이
해설
헹은에
##종을
##선가
##없다
##박을
전화하면
##해야겠다
가지마
여름이
생겼잖아
좋았을
취미는
한라산에
해가면서
남동생이
서운해
어떠한
꾸미고
신서유
가주게
가치가
것으로
게네
경햄
골을
곱다
굶어
그르
냈는데
너하고
다만
도께
드립
리조
못허게
민간
밝아
삶앙
슬기로
씨디
안됬
안맞아
연봉
자이는
주워서
줄기
짐치
태그
폴아
해시난
허잖아
##지에서
##네즈
##은예
##사업
##서부터
##저래
##위원
일본서
다녔었어
생겼지
##드라마
부분도
라면도
ᄀᆞᆯ앙
고양이를
중고로
하하하하
프리미
유니폼
가성비
밀크티
김선호
빨갛게
것ᄀᆞ라
그딴
낚아
난로
달팽
들릴
마나
마사
면화
밝혀
빠지게
성주
성숙
아는거
올까
위미
적을
제육
캐리
한건데
했던데
흔히
##었수다
##도날
##났구나
##소스
##코드
##왕으네
그거주게
모르는거
들어가신디
기억난다
졸업을
##버려야
고민하고
이만씩
많았던
저런거
부담스러워
사무실에
올렸는데
놔둬야
맞은편에
간을
감주
갔었네
갖춰
고고
과에
금융
매미
문학
반으로
백두
본향
빡센
사와서
식혜
썬크림
아냐고
없냐고
작으니까
좋겠어요
주점
쫓아가
차들
코드
##었죠
##기야
##주켄
##주지도
##보도
##와근에
##떡이라고
##파크
##날이
##과제
##애는
생각밖에
그렇더라고
아침이
아침에도
똑같네
사는지
찾아보면
자리돔
어쩌라고
기름값
들어갔을
시누이가
보호자
기능이
으으응
보증금
수수료
아무데나
개구
고이
고런
닭갈비
돌돌
드시
라멘
말한다
멕이고
모으는
못사는
바락
사니깐
소소
시야
줄이고
테왁
헌데
헷어
희생
##성게
##수강
##보네
##씨를
##문제
##모임
##댕기
##엇어
##션마씨
##떻게
말해주세요
사이비
바다도
피곤한
우선은
에너지
공장에
구하는
내렸
독해
동방
맞으
무늬
배터
사유
선전
손수
숯불
쉰다
승무원
앉혀
알코올
야경
역대
올련
옷들
의문
자니까
지친
편인데
피파
해놔서
헙니다
혼내
환자가
##나부난
##해지면
##이기도
##전공
##분들
##오난
##드시
##먹기
##티브
##않애
##퀴즈
생각나서
어디어디
이러는거야
말해줄게
끝나면은
하잖아예
안해신디
않을건가
직장도
그리워
소름돋
물어봤지
도둑놈
야무지게
단톡에
멍청한
할로윈
거치
거저
거제도
누웡
더울
동거
동쪽으로
듣다가
무스
보맨
안자
영허난
외식
원이야
이섯
있수과
점도
큰아이
한사람
##보다가
##하우다
당연한거
놔두는
느껴지
가보게
퇴근하고
힘드네
알아듣는
의자에
둘레길
고프
까서
농업
됐는지
떠가지고
묻고
발레
비티에스
식이
안만
알어
역사를
참가
콜레스
탈모
해실
해버리고
##언마씨
##놔가지고
##소리도
##왔던
##꽈게
무슨말
먹을려고
전화와
가져오면
음식들
달라붙
준비할
비슷한데
하난이
정신적으로
##이크업
잊어버려
그때부터는
자신감이
그분도
목표는
중고등학교
베이비
상품권
블루베리
말해주십시오
만만치
수목원
어벤져
경해서
끊어야
나대로
내라고
대껴
덮고
됐댄
땅값
무가
보더니
사연
수컷
역사가
연관
저쪽으로
정수
정수기
즐길
지엉
지쳐서
커트
커튼
큰소리
페인트
##다예
##은디
##났주
##진댄
##였대
##체는
##프레
그러더니
몰라부난
여자들도
가는지
말했지만
그니깐이
짜증나게
식당도
귀엽고
우체국
그럭저럭
계곡
고인
내버리면
너꺼
딴딴
먹주게
먹기가
무를
밥상
버전
보당
새콤
스콘
쏘리
안오고
암컷
연북
영향이
이엉
임상
팀장
##었져
##이거
##때만
##장만
##대야
##족이
아니라니까
느낌인
이상한데
재미있다
나쁘다
연애할
최고로
ᄆᆞᆯ리
구경도
예뻐서
##시키면
편안해
가위바위
조건이
흐흐흐
경마
그딘
데다가
되민
되가면
심사
애인
양푼
없죠
주믄
죽이는
죽었다고
지겨
진드
쪽을
틀면
혼저
##긴해
##작은
##비랑
##올린
하나랑
있는거라
다니거든
##리는게
시작이
어멍한테
몰랐네
않나요
경험해
현실적으로
안들려
캐릭터가
가마솥
강제
거게
게고
고냉이
꿔바로
날아가
든다면
번밖에
벼락
보지는
봤대
비혼
삐삐
사각
색칠
셔틀
소곱
싫으니까
안방
연속
오당
요일
잡힌
주는게
차만
##였더라
##미터
##조를
##애들은
사람과
나이를
어느날
걔네랑
말했듯이
짜증이
놔두니까
얘기해봐
교회에
치킨을
감사한
해녀들이
직업을
나간다고
거름을
##선생님이
이름쌤이
마농지
개그맨
마요네즈
오피스텔
슬기로운
가주
가셨
갈칫
고름
고향이
군것
나더라고
넣었어
무뚝뚝
묶고
속담
심은
작살
즐기는
찾기
파치
##거름
##러가
##오는거
##오면서
##간거
##적을
자기들이
이상하지
사실상
말하세요
누나한테
카톡에
누군가가
이틀에
눌러서
시내에
##에프제이
부드러워
서서히
메이커
자기만의
가파도
ᄍᆞᆯ
근래
끝이야
들기름
메는
변한
보라게
부녀
약초
오켄
옮겼
우미
이사가
일점
작정
조립
죽겠는데
중에도
커뮤
컨트롤
티를
티셔츠
협재
##켜이
##아냐
##갔고
##초밥
지금이라도
좋아하나
기억하고
힘들대
공부해서
먹었댄
일본인
알고리즘
어멍아방
어려워서
시켜가지고
돼지우리
##느냐에
할거니
보험료
하늘이
유리창
못생긴
패키지
기말고사
추어탕
갈아야
겅하멍
깅이
댕겸
된거라
말든가
버틸
살긴
여전히
원격
원장님이
정해서
차리
치니까
타이어
해삼
허물
##되네
##기다
##하단
##사자
##여근에
여행사
나무는
기다릴
살았잖아
##이어신디
나올거
아저씨는
만났던
양념을
상관없지
장소는
잔잔한
다다음
요양보호사
거봐
늦잠
당번
대강
도에서
되도록
등장
멈췄
묻는
번쩍
복사
비주얼
빛이
삼시
수상
쉬면
시트
쓰지도
안입
앞에는
어이고
연차
이응
전파
절벤
지성
홍역
홍대
##어찌
##했지만
##분은
##리한
##면으로
##보이는
##상품
##둘이
오늘의
공부한
떨어지니까
좋아하는구나
이모랑
다녔을
않았지만
스물두
화장실에서
건물을
자격증도
저번주
자신의
국가에서
가벼운
부처님
헤드셋
미세먼
간장에
긍까
기르는
끄성
난거
더워서
땐데
뛰어나
무리가
별도로
볼때는
부셔
사례
산을
심하고
안할거
오곡
웃지
웃기고
전환
제외
트렁
팔만원
회도
후임
##어른
##디강
##시설
##화된
##오민
##끼는
아까는
먹을라고
그랬고
생각해보난
하는거고
하다가도
어멍네
가끔은
그디가
봤을때
우리나라에
아버진
ᄆᆞ물
##ᄀᆞ레
테레비에
부끄러
전자레인지
짜파게티
입장에선
감을
경해가지고
골안
꿈에서
나비
노출
됐든
되죠
뒤돌아
든다고
막는
망했다
멘붕
못봐
몽고
북경
삼억
상복
세차
센스
소파
십원
아들이랑
안봤
없겠다
왔냐
이내
이점
이대로
잡혔
쪽도
텃밭에
토스트
팝콘
했당
##해수욕
##수까
##작을
##장이라고
##플루
##온다고
이름꺼
이러다
별로연
내려가고
##아니고
했었으니까
헤어져
무엇으로
공무원이
도로주행
영영영
드러누
마인드가
ᄂᆞ물
ᄄᆞ시
네모난
유기견
중간중간에
삼화지구
에그타
학창시절
걸레
게을
고르면
고구려
군산
나시
놀당
다치
다해서
로마
말안
맞앙
소똥
소유
양복
없겠지
연령
인싸
존맛
집엔
짝짝
찾앙
크긴
편지를
햄주게
##도롱
##할래
##직을
##문으로
##여그네
##남매
##묘한
##귀도
그거였어
ᄒᆞ연
재미나게
받아신디
버스타고
생일이
사람한테는
마시러
식구들이
남자애들은
계산해
연결이
물건이
자세가
아라동에
목소리도
클래스
예체능
거시
관한
꼴을
나록
남쪽
똥이
맥도날
밧을
부침
뿌링클
살쪘
숲길
쌤한테
쒀서
엇이난
에타
엽떡
영웅
오다
오직
외곽
이여
있도록
장점이
적어서
중소
쫀득
차릴
칠일
켜져
코팅
풀리면
허리에
##할까봐
##주겠다고
##르마
##서이
##왔다고
##럽다
##몰라
아니어서
엄마하고
그랬었거든
나왔고
일본을
생각해가지고
이런거에
여름에도
그쪽은
먹어야겠다
못하겠
바뀌었어
나만의
##쿠다예
집안일
안된대
카드가
일상생활
길거리에
크로플
간섭
같지도
남은거
될크라
목화
발도
병을
수험
신나
이에요
이단계
읽은
전원
정자
제초
채울
천국
키즈
하겠네
했니
헤연
##어게
##거리를
##같다
##리거든
##러기
##랬어
##차근
그런다
좋아지
좋은거야
##하지가
생각해요
아저씨한테
불편하고
##언니가
이만저
오라방이
불쌍하다
아깝고
깔끔한
은행에
성산포
재작년에
가벼워
가위바위보
가는거지
감각
것보고
교류
났다고
닮았다
동성
묻혀
백팔
보선
비둘
수세미
실버
씨름
않더라
압니까
양지
연도
옮긴
옷만
욕은
유적
이말
잘될
전용
절간에
찾으면
코를
타는데
타면서
통닭
폐렴
풍부
해지고
후유
##로이
##키고
##분을
##줬다고
##무지
##명은
##석은
##초코
##앤에스
그거다
##거든예
제주는
그럼요
이름이야
##인가요
어떵헐
말하더라고
학원이
나라를
물어보지
그다음은
않는다고
양념이
집중을
까먹언
버렸지
강아지도
디자이너
채워야
칼로리
이정도면
스크린
올림픽
거칠
곱하기
놀안
단위로
밟는
분인데
비린
석유
소곰
와네
왔었거든
원담
주구
지낭
쫙쫙
##있는게
##말랑
##타이
##졌나
##불언
##후에
그러는거야
거기선
그니까는
힘들어요
시작핸
안되나
거난에
똑같고
연락처
부모들이
허멍이
색깔은
없을거
카톡이
월급을
유튜브에
만드는거
달달한
##하르방
외양간
더욱
동쪽에
뒤져
말입니까
메이크업
몸에서
방도
백십
버블
봄이
부쳐
불민
빡쳐가지고
삼진
상견
색이
성안
세대는
소쿠
시려
아몬드
앉았
양하
오돌
이였어
잊지
죄를
줄서
체중
커리
커져
프랜
##사의
##볼려고
##테롤
##허당
얼마를
그럴때
정신차
##이었구나
새끼를
올려놓고
헤어졌어
어때요
치즈볼
전문적으로
딱딱딱
그러다보니까
억울한
날짜를
수입이
칠성통
당당하게
##ᄏᆞ루
말레이시아
갈려면
감태
갬성
관덕
길다
끊은
나은거
내도
놓으면은
단호박
떼는
뚫고
말았
몰고
받은거
보신
소위
신엉
악마
않느냐
익혀
점은
컴플
풀어서
헝겊
##데는
##자리에
##갔다고
##간히
##허랜
##모자
생각하게
얘기지
오빠들이
ᄒᆞ멍
하루도
필요한데
보리낭
좋아하는디
하난에
가게가
운전하는
자식들한테
대학교를
식당이
##버린다고
사장님한테
있게끔
큰아들이
소중한
##아파트
청국장
계시고
녹화
당구
대야
데에서
듣긴
맡은
바르면
벤츠
붙잡
산뒤
세종
시크
아픔
업그레이
월까지
인삼
입사
천혜
추구
취준
치사
침떡
할부
후진
후보
##으려면
##가면은
##분도
##그치
##시카
##한이
##허래
##금지
##베끠
##캐슬
##쫄깃
그렇게했는데
나는예
알아마씨
친구야
맛있네
싫어하거든
지나가고
화장도
못해여
키우지
자리물회
배우러
##하네요
이유도
##으면서도
종류도
내년에도
에스앤에스
다이어리
해줘서
보험을
여자애들이
중고등
에너지가
신용카드
비니루
전자기기
쫄깃쫄깃
인스턴
개판
개인이
구미
남성
넘지
놀아야
듣다
못하는거
밥솥
밥해서
밥이나
부리는
비계
뿌령
사오고
세우는
신방
실어서
영하면
있겠
있으라고
코난
타도
해놓은
호루
##사나
##병을
##작이
그때이
##더라이
어떵핸
겨울은
아버지랑
제사가
하멍으네
어떡하냐
연애는
호끔만
주말에는
오름은
가난한
직원들이
놀라가지고
제주대학
레스토랑
강도
구쟁
넘었지
담백
뜨겁
리스트
밑반찬
발자
발바닥
버킷
사먹어
산도
새거
속곳
쌓인
엑소
인구가
입언
주긴
질어
천이백
최선을
추우면
코에
크네
형광
##돼가지고
##라나
##하겠습니다
##아라
##오게
##생은
##테이
##대표
##삼백
아이에스
너네집
있는데도
그랬네
이상으로
싶어하는
필요하고
잡아다가
했었다
선물해
사회에
보험이
했나봐
쪼끔씩
쇼핑을
체육관
우울해
가깝고
요번엔
바구니에
##부턴가
요구르트
반려동물
두껍게
판타지
커뮤니
가버려
공인
놈들은
달아서
도래
디지
먹기로
면은
몇몇
목장에
뭐꼬
방식
상징
손재
심했어
싶네
약으로
어따
외동
제도
주나
파우
##했단
##줄도
##것처럼
##모를
##쳤는데
아니었던
그때에
얘기했잖아
아니고요
##수과게
하다보니
이것을
가게에서
새끼는
나눠주고
삼춘은
방송에
사위가
거미
깨우
뒹굴
마리를
말렌
묶는
물라
물가
민박
바를
바지가
변경
볼펜
분인가
빗자루
삶에
색소
소화가
손은
스틱
안갔어
에고
응답
이슈
일진
차차
초신
취해서
치약
커야
트랙
파괴
판다고
팩트
##어떻게
##매기
##이신
##짜리가
##스에
##스쿨
##타서
##저고리
##남은
##김치는
선생님들은
코로나만
무서원
말했습니까
키우면서
예쁘긴
선물이
스물아홉
인정을
개월을
팔아도
하네요
ᄆᆞ멀
전복죽
하르방은
애매하게
바이든
바이올린
미래에
성당에
레드향
허허허
스파게티
레이저
구체적으로
카운터
아토피
차근차근
콜레스테롤
가버렸어
검진
끊으면
단속
덜덜
될거야
모아야
병신
볼일
빨고
상점
선인
싼거
쓴거
집게
집이야
찾안
축의
한양
##이모
##고지
##갈까
##우꽝
##사회
##먹어서
##십주
##차기
##햄수다
##꼬지
어떻든
다시다
그럴수
요새도
찾아봐야
걸로만
달라요
알았져
잘해주
하기야
없었네
##버렸네
부담이
부담스러
가슴에
기구나예
죄송한데
문자로
적당한
가졌
간거라
감는
강동
거민
굽고
농장
된장을
들려서
먹냐
무용
무제한
봤던거
뽑아야
사생활
삼분의
숨바
아바
에도
오시
오르는
왔당
왔더라
요술
인네
작작
잘게
전산
주무
집이라
학대
한바퀴
햄구나
행게만은
##마취
##라떼
##수련
##스텔
##차이즈
##청소
##꼴락
진짜이이
괜찮긴
살아가지고
##을까요
해주라고
스타일로
수업은
겅허면
고민하다가
못하겐
순간이
받는다
직접적으로
오지랖
피곤해서
아파트에
남아있는
어찌어찌
바이러스가
정보가
블루투스
복잡해
아나운
안타까운
배불러
스릴러
시그널
갈았
깡통
노난
두배
딸려
만점
말까지
매어
바탕
범인
살거든
세시간
슬펐
심을
씌워
씨지
아인데
애쓰
왔언
웬만
유난
족제비
해는
허래
황당
흑돼
##지믄
##었겠다
##든데
##놨거든
##겨우
##품이
원래부터
중요하고
비슷하지
알았네
아래에
말할게
모아가지고
쳐다봐
깔끔해
바꼈어
탁탁탁
비속어
윗세오름
과는
구하고
기르고
깍두기
늘려
니은
다리에
당에
도토리
때린
떨면서
뚫려
라인이
모범
못받
보거나
봐줘
불량
비용이
삶으면
생색
수습
숙취
시비
심해서
싸인
알지도
에펠
여쭤
일식
장래
참는
청바지
페미니
허면서
혹은
히터
##이런
##아닌
##산업
##재로
##준비
##품을
그거면
제주시는
그니까요
얼마든지
정도면은
아까처럼
먹었구나
문제도
신경이
부르면서
##이여가지고
사회적
오름에
교수님도
물어봐도
단계가
집중이
ᄇᆞᆯ라
프리랜
체인점
누룽지
박보검
강이네
그쟈
김이
깔깔
드는거
딸이랑
맥북
부인이
아그
악착
애견
업고
옆집에
욜로
원서
저승
좋겠네
줄로
##직하게
##입이
##왔어요
##공사
##골이
아니더라
##한테만
정도까지
아버지네
일어나지
확실해
건가요
불러도
따뜻하고
##버렸어요
일반인
해봤거든
그림이
도로가
빠르다
신구간
강화
꾸미는
꿈꾸
끊어져
닥터
돌봐
두면
둥둥
먹겠다
먹겠어
모일
문법
백사십
별명이
봐난
불치
붙잡고
서는
실질
쌓이고
씹는
아는디
안채
앞서
여든
여잔
유퀴즈
잘됐
잘하니까
절여
주임
즐겁
집인데
짝퉁
층에서
치열
하체
현수
##페이
##병으로
##소개
##장갑
##서라
##대상
##짬뽕
##롭고
우리야
이렇게하니까
어디도
언니하고
말해보세요
##거라게
음식으로
중학교때
아방이영
김치볶음
부분만
##었을걸
##ᄒᆞ민
무섭다고
##시켜야
택시를
매운거
기회를
안경을
물어봤거든
가위로
이층에
엑스레이
브이아이피
진작에
동호회
임플란트
무한도전
건전
기달
나뉘
납니다
딸들은
맡아서
명령
못보
박정
반듯
베틀
불행
비추
사줬어
삼층
싱거
웃드르
원숭
주장
지실
튜브
하멘
하겠대
##가다가
##이들
##동으로
##살을
##놓지
##합디다
이름까지
필요하지
비싸다고
어려운데
선물은
얘네도
기름을
만났지
이쪽은
포장해
관계를
싸움이
대통령이
돌아다닐
톡톡톡
숨바꼭
가락
개똥
거닮아
경하면
관리가
다고
대타
두건
들락
리액
망핸
몇분
발급
볼때
서버
성폭
안부
장항
점을
최초
칼슘
크다고
폭탄
허문
형성
##거기
##디까
##하느라
##우유
##남이
##친다
##포츠
거기서부터
서울을
이서마씨
모르겠습니다
해봐신디
아기자기
챙겨주
없었으니까
종류별로
기름에
사회복지
십오분
빨래를
사대보험
반지의
도전해
야야야
스카이캐슬
에피소드
가냐고
가버리니까
감아서
구웡
끊는
끝낼
날부터
놀았지
도자기
두는
따랑
맞으러
뭐엔
복이
부글
성에
싸면
오륙
오더라고
오겠다고
있느냐
조급
지났는데
집이나
팔안
한장
합서
허무
호강
##부에서
##있어야
##을이
##주마씀
##길을
아니죠
않아신디
공부하다가
졸업한
최고라
감자도
내년엔
어울리
가방도
건물에
다닌다
전체가
춤추고
주기적으로
갖당
결말
굳어
그리스
난드르
낭만
넘을
네이
노름
노잼
달무
답사
될지도
뭐꽝
비건
셜록
솔로
쓰나
양꼬치
오윤
유학생
인상이
잘들
졌어
지서
첫인
체리
축복
태블릿
토할
하반
환상
##데이트
##언이
##행이네
##그레
##진게
##우까
##아프
##석에
##갓집
뭔가가
들어가난
아들네
안해주
돌아가서
하다이
고기만
우리집도
않았니
하기엔
##스럽다
제대에서
##에이치
네이버에
보릿짚
베란다에
한편으로는
수월봉
당분간
아울렛
프리미엄
프랜차이즈
가부러
간절
거냐면
걷다가
구찌
깨고
나니깐
단오
대창
되느냐
말라게
맛집이
바티
밤늦게
빨아서
설렁
안팔
어야
열린
줬던
쥐가
초벌
추진
탕탕
형부는
##알이
##좁쌀
##밤에
이제라도
사람에게
좋아신디
좋아졌어
##이고이
##그네이
나왔으면
좋아해부난
동생네
어려웠
일어나니까
할아버지네
해봐야지
사회가
차가워
위해서는
연습하고
가을이
사용하는
골목에
꾸준하게
요망지게
아끼는
신서유기
갔던데
고대로
국룰
그민
극복
년제
도넛
마비
매끈
메시
모ᄆᆞᆯ
물러
물외
뭐이
방과
변기
선풍기
소장
쉐로
스파이
시국이
아인디
영하멍
온도가
우러
의학
지경
태워서
플라
허가
허니깐
##지않아
##었잖아요
##당탕
##하라는
##겁니까
##빼기
하나봐
원래도
있었지만
재밌네
돌아가시
에이형
중요한데
준비해서
학원은
얘네들
개월에
식당을
오름이
직장생활
반찬을
친정엄마
인간의
택배로
얘기하더라고
날라가
놀래가지고
시골에
하셨어요
될까요
건드려
자잘한
에펠탑
개많아
겸사
꺼라
넘어야
당이
되겠어요
떨려
베풀
별명
봤댄
빌리
사카
사오십
서사라
어무니
열받아
요령
일이니까
차타고
퍼져
하자마자
##인다고
##주면은
##하든
##관도
##일리
##줬다
##졌대
##환자
##환경
##겡이
좋아질
어디라
있는건
올라갔어
같애요
애기아빠
이상을
말해주고
나왔나
무서운데
##마씸게
위에다가
데려온
ᄀᆞᆫ
한테는
아버님이
만큼만
기대를
깔끔하고
느꼈던
공동묘
요번에는
굼벵이
가카
근대
김수
내비
돌도
됐대
뒤통
롤러
리듬
멜로
배구
변화가
봅써
부위
삼개월
세팅
식용
싸가지고
씻을
아졍
아기도
없단
오형
오거나
인대
정정
지속
차서
차들이
참이
플랫
햄신고
허드라고
흰밥
##거리도
##되기
##테이너
##심도
##배를
##염이
제주고
이름이라는
그렇진
맛있거든
만들아
거라니까
말해주면
여섯살
할망도
##라이딩
나올때
미국도
모자라
모자란
해가니까
만큼은
둘째는
끝났지
부족해
포장마
해여그네
성공한
최악의
맷돌에
관덕정
길마
나예
남았다
놀자
닫는
덩치
말썽
메일
반드시
보온
봐봔
뻔한
산다는
세면
쉬면서
쉽고
시동생
쌓고
안본
안하잖아
안됩니다
연대
요게
위기
조끄
챙길
청양
촌에는
클릭
합법
형한테
흰죽
##거잖아
##짜리도
##갈때
##커피
##졌거든
##된대
##알지
##는데요
아이그
좋아도
모르니깐
##하게끔
말해주는
먹으니깐
찾아가지고
오십오
대해서도
자식은
올라가니까
##드라구
도와줘
소개해
바당에서
유럽은
걸리니까
##그러니까
타이밍이
간만에
값을
공룡
궤기
넷이
드르
듣기만
먹일
무우
비올
비즈니
뿌리면
사줄게
사천원
소스가
수록
실명
썼다
아기를
안말
안에도
예쁠
잇주
재기
차마
터널
푸대
햇볕
했데
헌혈
혼인
효도
##지대
##있었는데
##직은
##먹엉
##적에
##공무원
그러냐면
아이엔
좋아했거든
얘기들
가서는
게난에
괜찮았
가는구나
가져오고
이런거는
마스크가
스물여덟
없을걸
삼촌도
케이비에스
지역이
부모님도
지하상
여자애들은
말했어요
않으꽈
딱딱한
책임을
고쳐야
부드럽게
클래식
전남친
포켓몬
갇혀
강보난
거까지
남기고
대들
막판에
먹여서
버니까
보물
빡쳐
사세요
상주
새신
신가
실펑
싸구려
쌍욕
아세요
왜왜
위의
일포
일자로
잡았는데
전북
주저
주사를
죽으
줬다
최신
친하고
하질
한입
한동
허리도
협박
후원
휠체
##를이
##되면은
##디게
##려다가
##하구
##치다
##병에
##간장
##에서이
것도이
아무말도
다른가
말해요
##버리잖아
보리밭
겅해그냉
살았으니까
경해영
치킨집
월급도
지나가다
해준다
매운맛
섭섭해
그사람이
안타까워
훌륭한
영원히
조미료
강냉이
같잖아
교생
꾸역
내과
노숙
놩으네
도구
될거라
두살
따가
모텔
뻔뻔
산에서
상강
수비
숨쉬
심해가지고
아쿠
연계
오에스티
옮기는
왔는지
외우고
점장님
정착
제철
좋으난
주식이
죽겠다
찬성
체코
케잌
큰오빠
##되나
##갔당
##적이라고
##메뉴
사람네가
나는요
어디간
##신디도
##려고하면
##더라고예
우리는이
말해보
아침은
학년은
그럴걸
삼십이
가야되는데
중국도
살았다고
허고예
고생한
좋았거든
자식도
올라가는데
못하겠다
들어간다
해줘도
케이에프
반응을
핑크색
싱가포
쇼미더
중소기업
가오
거영
거보다
구급
끄는
끊언
리스
모닥
물들
바꿘
밥해
봐주는
비율이
사올
송아지
왁왁
왜그러
원인
입으니까
자수
잘돼
종이로
질렀
차이는
초파
한우
해이
했주만은
화났
흘리고
##인간
##크매
##반도
##머신
##론가
##클로
사람당
생각중
얘기야
했어도
말이다
재밌대
고등학교는
어려우니까
세상은
배우가
데려와서
살았다
깜짝이야
##었다니까
보이거든
힘든거
경해그네
불편하지
형님도
피부도
많았고
해줄까
거리두기
사람들한테는
안될거
겨우겨우
자존심이
부드러운
중심으로
갚을
기리
기니까
김영
낯가
내쫓
논리
닥닥
달을
달인가
답변
도수
뜨니까
맞이
멀어서
목사
못된
물렁
밤에도
복권
부회장
불평
살릴
서까
소음
쇠로
않겠지
알앗
없음
열네
욕할
울려
유교
이화
재밋
젖어
지시
지팡이
캡슐
통합
티나
포스터
합리
항암
해지는
후추
##나수다
##고생
##하실
##연수
##관념
##미를
##친거
##내시경
##습디다
##량으로
##근이
##ᄎᆞ
그런건지
나는거야
여자의
정도를
아빠를
이서예
영화에
육지가
경허는
중요하다
핸드폰만
하니깐이
색깔로
치킨도
청소기
무엇이라고
이불도
부모님들이
##신고예
자신감
바닥이
훈련을
면역력이
남녀공학
예방접종
트렁크
갈라서
날리고
다짐
닭이
뒈지
맞았는데
빵꾸
사줘야
상웨
시켱
시장이
싶지가
않어
왔냐고
외에
웃길
유혹
저울
젖은
좋죠
지킬
치는데
포대
피지컬
하드
해고
했는가
회비
##니게
##있다가
##냐게
##린지
##문은
##타기
##람지
##동글
##끼가
##살아
##돈이
맞아예
들어보난
해서는
좋아하게
##구나이
공부하면서
말해라
시작했는데
없고요
걱정되는
하다못해
다녀야지
만원에
부산도
강아지들
그다음부터는
제대는
교수님은
답답해서
스스로가
어색한
박스에
##버릴까
포함해서
일으켜
갚아
겉으로
골랐
그서
기쁘
내어
내성
내게
달리는
당원
들은거
딸한테
라면은
만기
모니
몸만
볼라고
비켜
산댄
술자리
쎄게
애월에
앤데
일이나
읽었어
저절로
점장
점검
죽었지
쳐가지고
플랜
합시다
해신
형태
환갑
##가로
##했수다
##자리가
##주리
##반을
##르다
##팔백
##통도
##준이
옛날의
시간표
남자의
이상형이
영화로
학년때
사고를
말했다고
타고난
게임하고
사십만원
서귀포가
데려다가
해보카
새끼도
놀러도
얘네들은
대화도
부분에서
칠십만
이백만원
조용하고
남자친구는
배달의
피부에
출근을
맛좋게
휴가를
돌아가셨어
적응이
스피닝
교환학생
라오스
알라딘
개많이
공감이
나면서
나부터
낫겠다
낳지
놀려
놓은거
때를
뚝뚝
못알아
밖에는
벌려
본능
빠꾸
사냐
새내기
새서방
서면
손녀
아랍
울산
유별
잠자고
족아
주더라
지문
하쿠다
##부랑
##지랑
##있던
##매서
##기관
##바늘
##천에
##석을
많이도
올라서
보니까이
가져올
걔네들도
점심도
만든다고
잘생겨
결혼식을
좋아했었는데
ᄂᆞᄆᆞᆯ
하필이면
순수한
별론데
게영
경력이
교시
낭으로
돌에
떨고
멘토
바베
반부터
밤마다
백세
번개
분유
서껑
선지
술먹고
시선
신비
싸워서
썰이
알수
업데이트
없덴
왔습니다
용기
용두
의경
이북
이전에
지퍼
하던지
허나네
##되잖아
##고에
##우면서
##화로
##테주게
##된댄
닮아이
괜찮안
아주버니
얼굴로
보여줄까
연락하는
정신병
할망들이
고민해
받았잖아
##버렸는데
제대병원
음악을
면접을
고르난
장소가
비밀의
달달달
스키장
면역력
##하셨습니다
포르투갈
꿔바로우
감싸
그데
급이
길어서
메누리
뭐할꺼
밥이랑
삼대
순서가
시각
심하다
십대
쑤는
쓰잘
안대
어저
올꺼
욕조
있겠냐
좋냐
짧고
차리는
타다가
풋살
햄수게
##가꼬
##거네
##직으로
##보는데
##길에
##아트
##일껄
##졌고
##동에서
##레가
##션을
##훈련
##멓게
어디꺼
##신디예
힘들거
먹을때
언제냐
마음가
싶은게
보리농사
달라질
재미있었는데
제사는
회사는
##이었다고
운전하고
스물한
치킨은
메밀쌀
담배피
관리비
나갔다가
##ᄀᆞ치
국물에
삼성혈
큰아빠
건들지
시스템이
재능이
##ᄂᆞ물
미나리
가전
같진
공기도
냅두
닮댄
던지는
동유럽
말리는
무증
문은
문방
백호
보글
살면은
싫지
싯고
쓰라
양애
오는게
원이라고
자자
자르면
주행
주셨
지르고
짝꿍
쪽에도
최우
코끼리
통이
학회
할말
합창
회는
##보를
##켜게
##계약
##바삭
##테니
##았댄
##미디
##팔이
##칩이
##브라
하는건지
그러면이
없어지
친구로
괜찮더라
힘들더라고
만나신디
말해줬어
싫어하는데
이건데
비싸가지고
연락은
몰랐다
하더라구
살았으면
놀러가고
새벽까지
영상이
영상통화
교수님들이
언니네가
보믄이
야이네가
그제서야
테이크아웃
말랑말랑
돌레떡
그야말로
외제차
정형외과
이만저만
거마씸
것밖에
고치는
고메기
글도
김종
나더라
농어
다낭
달랐
들었고
멋인
모냥
모살
못나가
묻은
방으로
사주면
수두
실수로
쓰랜
어후
자만
좋구나
좋기는
카라
필터
하소연
한도
화순
##해사
##해연
##고등학교
##자만
##였는지
##제에
##뱃돈
진짜예
그런건가
있는지도
좋은거지
##부난게
있었댄
기억력
애기때
머리만
먹었으면
필요하면
미안해서
드라이
안나는데
자연적으로
갖다주고
교수님들
신발은
많았잖아
물어봐봐
어르신들이
주구장창
가보난
가봐서
각재기
감성이
겅하는
고르는
공고
깨진
나같은
넘고
네다섯
더더
돌봄
동부
동상
동넨
떼서
마크
맨발
맨들어
미성
부도
산후
상상을
생물
생태
서쪽으로
선착
성도
속을
순살
쌀쌀
씨도
야식
야시장
엔씨
왔었는데
요것도
용심
인식을
재산이
저학년
정규
제빵
종손
즉흥
집사
텀블
토토
트롯
패마농
혼수
##가자
##성으로
##이면서
##자야
##기념
##조금
아니겠어
나가려고
재미는
어느새
건강도
돌아가셔서
할아버지한테
프로는
아홉시에
이래저래
없었습니까
귀여운데
갈아입
한라산도
신발이
보험도
소개를
짜증나는
근처에서
좋아하진
대면으로
벌레가
안좋아해
후라이드
못생겼
헤여근에
길거리에서
받아들여
비자림
케이블카
가물
간게
갈게요
거리를
것이지
경고
곽지
국장
깨닫
늙으면
닮기도
됐져
들이고
말리면
모이지
못했지
뭔줄
바지도
반바지
방수
변비
보시
봐사
봤냐
봤다가
새싹
성냥
실비
싶었
안쪽에
얄미
예산
온거라
위주
유머
입었는데
제약
종이에
좋겠고
총을
편도
해먹을
흐르는
흥미가
##에나
##줄이
##함에
##화는
우리어머니
이렇게하면서
생각한다
그때마다
제주사람
자기야
나오는지
같애서
재미져
보내니까
재미있지
무시하고
취미를
사라졌어
버리니깐
##ᄒᆞ는
ᄆᆞᆯ은
계란찜
분위기를
가루를
치료를
손가락이
한마디도
ᄈᆞᆯ
공모
기묘한
남저
낭푼
노예
대소
두벌
드시고
들게
먹기만
멸망
복삭
볼륨
볼때마다
불만이
사래
셀프
싼데
쏘는
아삭
앞에서는
야옹
옥상에
외지
이아이
인원이
일했던
자루
장은
장남
절물
정주행
죽겠어
짐승
하더
허세
허는거라
헤이
##부럼
##마기
##있는지
##도우
##같고
##글라스
##오일
##셔도
##개발
##님들
##조개
##브난
##답게
우리학교
그러믄
가지고예
삼십육
스타일을
기다렸
감자는
알려줄
해외에서
오백만
유투브에서
나갔을
번씩은
붙어있는
빙떡도
부엌에서
불안한
용돈을
과정에서
스쿼트
올챙이
가다보면
거튼
구정
극조
당할
되기는
딴데
라라
맞으면서
바에
밧데
방지
보석
비지
신산
싸돌아
여서
외로워
이곳
이구나
정원
조를
참깨
쳤어
친했던
큰큰
큰아버지
풀어야
했어서
##되켜
##수께
##보진
##친다고
##님이랑
##헤도
##점으로
##메이
그러자
괜찮더라고
힘들었는데
##수다만은
코로나땜에
내려가지고
없는지
머리로
재밌었던
알바하면서
아들하고
하는거니까
키우기
말하니깐
잊어버리지
말씀하신
난리나
이불을
어신거라
##부렀댄
돌고래
자극적인
ᄀᆞᆮ는
착착착
가느냐
감각이
고물
그릴
그쯤
깨어나
나한티
노량
똑간
마스터
맨유
모욕
박은
밥값
배만
부업
사학과
살단
샀네
성은
속은
속초
싸와
썼을
아기는
않냐고
알면서
영하고
우시
위에도
이별
이우다
이수게
적용
전반
전략
주간
진돗
칠만원
캄보
컨테이너
헤신디
흙이
##으냐
##다닌
##카이
##난데
##주거든
##운거
##허면은
##엔도
##질꺼
##볏짚
그런말
없어야
여자만
괜찮거든
않아가지고
공부에
고등학교도
안에만
들어오는데
많고이
움직여야
안가봔
고모는
가이네도
모임도
표현이
사과를
과일도
몸무게가
유니버
에너지를
지름떡
단순히
포인트가
유통기
우뭇가사리
갔었고
경매
경한디
극한
끊긴
노망
또시
뜨끈
무말
미는
본적
삼주
상화
수용
시동
싶더라고
쌤은
안하게
영역
올령
육만원
이단
좀좀
초상
해불고
##가시
##가는거
##기라도
##리민
##류를
##시는데
##말까
##금으로
##케이크
아니긴
그래두
만들젠
만들어요
아빠네
말해줘야
말고기
재밌는거
해주잖아
비슷할
허난이
여섯개
없을때
개인으로
##버렸다
라면이
출근할
너희는
맞추면
서운한
파리바
오분자기
동글동글
오누이
신분증
역대급
가가지구
공이
공학
기사가
김태
나혼자
노답
다방
드래
디게
땡기는
못만
반쪽
방치
세살
손만
신식
아반
아일
아후
안개
어젯
에는
영도
영허멍
우트레
잘은
재생
저고
저랑
전사
즐기고
지에스
쩔어
쪘어
차원이
채취
포제
한경
해동
형식
##부의
##하우
##문과
##십서
##람쥐
##새가
##엉이
##들이라
아니라부난
그것처럼
영화나
아들들은
스타킹
할망들은
거잖아예
시어머
챙겨주는
교회는
불편할
티비를
반찬은
추천을
단계로
스토리에
용돈도
심심해
해줬으면
가봐신디
나누고
라이프
평소에는
게스트하우스
스튜디오
내후년
캄보디
가든지
같았으면
겅할
경이로
기기
꽃도
네번
데까지
동동
똘은
로망이
미칠
반인가
부치
새미
싸네
썼다고
안동
알크라
없데
영환
조커
친목
##부대
##자인
##수리
##보글
##하켄
##임을
생각났는데
좋아지는
모르겠지
내려완
##었지요
보여요
안해봤어
말하는지
가게를
말하네
외국은
이래야
고사리도
표준말로
반대편
ᄌᆞᆫ
카메라가
콜라비
해야될거
소방관
재택근무
가꾸
거네요
과에서
글램
나그네
넘언
로그
모믈
배설
부시
빙수
뺐어
새롭게
세세
세웠
수출
스몰
신규
쌀로
쌩얼
알뜰
양태
엉망
오기로
우터레
장거리
제트
집값
청첩
캔슬
캠프
파니까
풀릴
했더라고
##거랑
##이죠
##티즈
##꺼면
##낫수다
사람끼리
해야겠어
제주도에서도
나오지도
나오는게
힘들댄
다니는거
먹을지
살아갈
먹는지
그것들
수도가
그래가지고이
모르겠는디
작은데
건강하고
스타일도
냄새는
냄새를
수업시간에
주소에서
##거리에
사라지고
십오일
마찬가지야
괜찮은디
모임이
아니꽈게
계약을
이쁜데
유일한
거북이
주황색
현수막
바베큐
가는거라
강조
갖는
개면
걸어도
곱딱
구사
나믄
대처
때리면
멀고
밭볏짚
분화
샀어요
열쇠
옆의
우렁
정서
족족
지를
찍었
천장
칫솔
타기
특성
팔러
화물
##인것
##매고
##걸름
##학습
##티도
##심은
##쩌구
아니깐
아니었거든
너무해
어떤지
이서사
ᄒᆞᆨ
마음만
먹으맨
필요하다
한국인이
찾아가서
바다를
보난에
들어갔다가
입장료
쳐다보는
배고프면
익숙한
아끼고
이왕이면
진정한
재활용
점점점점
분홍색
갤러
갸이
겅하당
공차
교래
구이
그랜드
대외
때인가
똥꼬
맞을걸
몇시까지
모종
민속
박고
백억
비양도
사먹는
스윙
오꼿
웃었어
워터
유대
이정
이간
일호
일화
작두
적립
전형
주지도
지질
쭈꾸
투룸
티브
펭귄
해라게
화났어
활성화
##지안
##지금
##이체
##음파
##기니까
##주네
##책을
##두가
##소도
##일거
##핸게
##체크
많아지고
그치룩
알바비
다섯시에
그디도
해봐라
하려고하면
보이더라
배달비
기계를
여자친구는
오라버니
나간다
관광객이
과제를
비교해
재산을
공동으로
엠비씨
여동생이
디즈니랜드
상호명
글램핑
감물
개방
개소리
거로구나
난데
남았지
낳았는데
노지
동여중
마션
빡치
뽑으면
상고
선도
속솜
안빠
안난다
어렸
엇주게
육년
이란
이맘
이었는데
일절
일해야
잡으려고
장화
줄만
증상
콩깍
한적
##되난
##고둥
##하하
##집어
##무가
##쓰기
##플러스
##놈이
이거밖에
##하게시리
사람이구나
나가이
사람들이나
애기한테
별로다
만나면서
시작하기
먹었으니까
오십분
돌아가시면
중간에서
스타일인데
살았네
상관은
깜짝놀
자연스러운
아래는
못하크라
싸우면
무섭긴
에어비
가져가야
물어봐서
의미를
연결해
동그랑
까먹었다
수준으로
운영하는
아내가
시급이
바삭바삭
가디건
감바
고동
괴로
기후
네시에
농노
놔둘
대행
돼지를
두유
드물
들었다고
때렸
라서
립스틱
마니
뭐하는거
미장
바지를
발열
봐보고
부여
뽀글
서꺼
선진
세와
수사
수련
술술
스캔
시면
시상
써요
쓰젠
안감
없는거지
이효
일위
잊고
자몽
저이
적어야
정석
주가
채점
치와
학부
휴게
##으시
##으크라
##다는데
##음으로
##트에
##하덴
##치기는
##영도
##화장
##말에
##씩만
##담이
##릅니까
우리하고
##하면이
여기랑
있고예
하면서요
다음에도
돌아왔
돌아오면
먹을수
싫어하지
알바생이
나이든
재미있었던
에이쁠
가끔가다
김치는
커피는
생활에
대한항공
서방한테
저번엔
세계에서
우유를
얘기하자
토요일에
롯데마트
구조가
지들커
경운기
유재석
별도봉
가둬
갈랑
걔만
고용
교체
근본
덜어
도미
되겠다고
만장
받침
백명
사잖아
신문에
싶더라
썰어가지고
아트
앞에도
용서
유방
전인
지배
찌질
촞아
카스테
틀렸
피크
해먹는
햄잖아
허더라고
형들
혼나고
##해안
##음악
##정류
##졌으면
##티아
##국수도
##무슨
##무사
##무늬
지금이랑
아무렇게
나오맨
집에선
옛날에야
##이지요
한데이
키우는데
할아버지랑
그날도
검사하고
빌려줘
조그맣게
바빠가지고
좋았어요
일요일에
하늘을
태어나고
축하해
평화로
어마어마하게
청양고추
ᄁᆞᆯ
가발
가겠어
가방이
거둬
걸렸을
경향이
고라도
곳으로
공복
글이
급여
남잔
내복
널고
덴데
맞주
목적으로
보육
복층
빌릴
빻아서
산딸
알주게
애국
언급
연못
왔져
요리도
우편
이즈
조케
조심히
주우
주기도
증거
지니
쪼끌락
쬐끔
차이도
찾았
체계
펜슬
풀로
프렌
##지더라
##라야
##다그넹
##기게
##학을
##십니다
##국밥
##봐요
##코스
##질하는
##놓을
##완전
##폭포
아니나
이제랑
해야주
맛있었던
싫어할
동네마다
필요하다고
보리빵
여러번
일어나자마자
성격에
했었을
사랑에
부산은
귀찮아가지고
영상으로
잘생기고
그림도
십오만원
인사도
하나님을
자취를
바이킹
세금을
멀쩡한
고지혈
음력으로
도리깨로
호기심
이력서
트와이스
업그레이드
쇼미더머니
노량진
겅은
구수
끓어
놀게
닮았지
때에도
때였어
맥이
반항
받암
보연
비유
삥이
신어서
실을
썼잖아
아흔
않우꽈
완에
이어져
잘먹
잘했다고
전해
초장
편에
폐기
##겠데
##줘라
##이여서
##고만
##수지
##놔신디
##의사
##배가
##질까
##럽지
그러더라고요
그렇기
보면요
있었습니다
기억남
다니려고
말해줄까
육지사람들
중요하게
시켜도
고기랑
맞는다고
기억나맨
중요한건
경행으네
지역마다
아파트가
언니네도
걸린다고
성질을
다행히도
화면에
물어볼게
수망리
ᄀᆞᆯ앗수과
서까래
ᄃᆞᆷ
갱신
고리
구제주
그집
기모
꺼냈
날마다
남긴
눌어
담으면
되겐
들린
때의
때쯤에
로켓
망치
먼지가
미군
밥그릇
벌이
볶은
뿌리가
사내
성악
싫대
싶었지
쏠쏠
얻고
영해도
오대
이직
일분
재혼
저를
집행
차박
파래
풀리
행사를
헨마씨
##게시리
##운이
##읍서
##내면서
##무서
##놓은거
##조차도
아니민
알아야지
다른사람
보면예
공부하러
어머니를
전화해가지고
이서이
나이스
혹시라도
건강관리
자기네들
나올까
미국이
손님도
컴퓨터가
인간관계
가봤거든
기숙사에
매운탕
저희는
유튜브로
이름언니는
신기하다이
요망져
싱크대
제이디씨
인스턴트
아반떼
개난
것덜
골치
끄트
날카
노랗게
다름
대상이
돌면서
들으멍
만지고
메누
봄에는
분밖에
불과
붙었어
비스
섞인
세뱃돈
소수
싫은거
싸잖아
쏘아
안됨
어섰
엉엉
연주
인재
입주
잘하잖아
조밭
주춧
주겠지
중에서는
지르
지치고
쿠션
큰며느
해운
헨에
##겠댄
##봉사
##했주
##거들랑
##시나
##장수
##적이라
이름엄마
이거다
없어젼
아니고예
##부난에
##부난예
전화기
사진에
하루만에
병원비
달라지는
가족은
##스타일
외국인이
비행기도
신청한
쓰레기가
계란도
##했을때
미깡도
선택한
성님네
좁쌀로
해사주게
야무진
제삿날
수돗물
알러지
외숙모
곰팡
곰돌이
공업
과를
구해야
군인이
기주
까르
끊겼
노을
놀리는
메다
메세
몸살
못하거든
무릉
미생
박쥐
벽돌
보편
빅뱅
사려니
쉐막
슬쩍
실수를
심핸
알다시피
엉뚱
연인
오는거야
원에서
의해서
임마
입었
주시고
지져서
직진
찍어가지고
참지
채롱
체온
타작
피워
호구
호날
호캉
후리스
흉터
흔들어
##도게
##들게
##할땐
##주사
##꾸럭
우리들
자기들끼리
사람이지
사람이잖아
엄청나
남자만
괜찮댄
들어가자마자
여행갈
사이버
유명하고
몰랐고
않을까요
봐야돼
바람을
종류에
칠십오
잊어버려서
안가져
구경을
삼백만
모임을
검색을
스토리를
사무실에서
하늘에
마셔야
상처가
침대에서
작업을
대출을
충전기
##도리탕
조선시대
예뻤어
아구찜
산방산
어벤져스
싱가포르
경이로운
가려면
걷지도
고쳤
까딱
낫고
단점이
독이
돌린
돌잔치
됬는데
들었나
때였거든
마저
맡기고
매듭
모가지
목걸
문지
반달
받으라고
밟으면
뺄라
상인
식도
안바
안쪽으로
영점
예측
요즈
잠자리
쟁여
조끔
차린
켜서
터졌어
할땐
헐거
##부츠
##신청
##가사
##추륵
##우니깐
##업을
##엄서
##쓰리
##너츠
##즈가
##과도
##달라는
이름라는
옛날보다
사람이난
먹었다가
비싸더라
아이들하고
경허연
다르구나
일어나야
그디강
것만으로도
해야되는거
대화할
교회도
##이거든요
소금물
삼춘네
충격받
골프장
큰아들은
어떨까
혈압이
잔디밭
아싸리
포토샵
전지현
아궁이
가정을
갓다
고르고
공시
꿩이
노는데
늙어가
돼지도
들러서
똥도
랍스타
멋지다
면회
몰입
무껑
받네
비리
빚이
빼도
사오면
산간
삼동
신생
신상
안일
에잉
조승
준다는
중도
진짠
찍은거
찜닭
첼시
할리
회가
##으지
##으셨
##다귀
##자들은
##리드
##진대
##글라이딩
##하곤
##개비
##줬던
그거연
자기소개
나가라
기억하는
나이키
안되어
비싸도
신기핸
대학은
##아니라
새끼야
육십만
돼지우
잊어부런
되어있는
나눠져
부모님이랑
가져가라고
쓰레기통
와이파
바깥으로
안쓰고
월달부터
대중교
이끌어
생일선물
천혜향
미성년
가신가
게게
곱슬
놀멍
다칠
덥고
되던데
뜨잖아
미치는
방식이
백인
벌지
보안
빌린
살잰
섞은
소아
속도가
신으면
썼네
아자
연세가
예매
와봐
육촌
일꾼
장옷
전전
주시는
직장에
질겨
집들은
쨍쨍
축축
치메
팔앙
했기
현상
##나믄
##해네
##다방
##했었잖아
##테지
##건강
##푸드
가지고요
나오니깐
다른게
맛있으니까
어머니하고
가는것도
##거라예
싫어해서
안해봤
고등학교를
걱정돼
기다려서
아방한테
예쁘더라
수술하고
것들만
작년부터
말씀드
않을거
무엇이
연예인이
잔치를
ᄉᆞ삼
숙소에서
상처를
나타난
배웠는데
바보야
올케가
완벽한
토신제
까끄라기
악착같이
겸사겸
갔었을
강씨
개야
남미
내보내
놔야지
누우면
다정
덩어
뒤돌
들잖아
따다가
때매
리필
마르고
매립
모앙
모셩
못먹는
문자를
본전
뺑뺑
삼수
상반
솔편
승마
실로
암살
애착
양성
얹어
일들
주어진
찍혀
폭력
한문
햄시니
휴식
##줘신디
##들언
##의도
##글랑
##원들
##른거
##햄신디
##없어서
##헷수과
##됬어
##킬로
그거로
##라고는
들어주고
하고도
어디였지
있는데요
살아보고
언제면
문제고
마스크는
한라병원
해보젠
육십이
대화하는
어렵다고
느끼해
남자친구도
사장님도
근무를
속상한
책임감
날짜가
먹어봤지
블랙핑크
알기론
일출봉
아주버님
고속도로
버킷리스트
값은
갔었나
거리에
귤밭
그냉
깨는
담글
대령
도끼
동경
막대
먼데
받으면은
밟아서
밭으로
배치
베고
블라
순식
심으면
안주고
알지만
어뜩
업어
올인
우르르
이새끼
잘안
첨단
타면은
하숙
해멍
##으켜
##지뽕
##있구나
##해준
##줘요
##되여
##보이고
##파가
##과에
##렐라
생각하다가
그런데서
조금이
시간대
내려갔
운동장에
오래오래
한다음
게임만
시켜주고
말하긴
않았다
이유로
큰일날
이랬지
가격에
사귀어
##시냐게
노력하는
지나가는데
놀아도
우리한테는
##이란게
행동이
어딨나
역할이
이리저리
좋안게
안됐는데
아니여게
잔인한
만듭니까
과도
궁합
꼬불
끝냈
난방
낮게
노물
데워
도서
뒷담
들리지
맡고
못합니다
무선
뭣이
밀어서
바게트
발랑
상대가
세부
세례
소품
수에
스누
쓸려고
안받아
알주
압력
요요
울타리
윷놀이
이박
인성이
입히고
자야지
쟤도
절벽
중성화
터울
토산
통역
팔로워
하겠는데
흘리면서
##인건
##자라
##리장
##사관
##시라
##집으로
##급자
##허주
##허주게
##플레
##올라
##꾸역
##조심
##김치도
아니니깐
사람덜
그렇게하지
그렇게해야
하면예
생각날
알아본
들어가려고
거라마씨
공부하면
ᄒᆞ면은
##하다보면
가져강
보여준
##적인게
해주랜
뭐라구
잡아도
만났네
갈아타
내년부터
작년인가
안가봤어
수학은
불쌍하게
택시비
고맙고
걸린다
한림에
시절에는
시끄러운
이쪽이
각자의
두번째는
테이블에
없애고
이천이십일
방탄소년
봉투에
비트코
꾸역꾸역
텀블러
가겐
갓난
같지만
개조
고개를
귀리
극장
또다시
마르면
맞는지
모이고
모릅니다
박살
벽이
부들
살려면
송충이
써신디
옮기고
이세
이뻤
자국
좁썰
쳤는데
##부글
##으꽈
##가에서
##기보다
##놔두
##였단
##형제
##장사
##채가
우리꺼
이렇게해
하나네
얘기나
있는것
모르나
알아들을
알아보는
닮아마씸
사람들이야
올라갔는데
별로라고
먹었었지
노래만
한국사람
사십팔
안나고
시집가
허여그네
말하면은
들어간다고
검질은
여유롭게
추가로
안전하게
핑계로
친절하게
버티고
멘탈이
소매치기
두들겨
겸사겸사
ᄈᆞᆺ
각단
간혹
감흥
감자가
결석
곧고
교직
구박
기사님
깊어
낭이
노민
도굴
듣는거
마리에
막대기
맞다이
문재
박힌
베지근
부수
비여
상이
소소한
숙성
심플
안산
앞의
열지
옷감
왕창
외향
운반
인화
자원
중대
지났어
청정
촌년
콩짚
틱톡
파김치
팔로
피난
##다매
##리젠
##들지
##아들이
##혁명
##먹는데
##티를
##선에
##무침
##경찰
##쪄이
##림도
##과목
##능력
##뒤에
##니까이
아니우다게
그거래
그거에다가
같은건
만들앙
거라게
그랬던거
이서나
여행에
사진들
아들들이
여기서부터
경허당
저녁까지
말했었어
다녀신디
자기네들이
자기네들끼리
고생해
내용도
들어갔지
수영복
방송을
지원금
장사도
성님도
바닷고기
떨어져가지고
무릎에
아고게
어딨냐
들여다
놔뒀당
헤낫어
롯데월드
뭐뭐뭐
하나로마트
눈빛이
게으름
적극적으로
맥도날드
갈건데
건대
궁시렁
기울
꺼낸
꼬물
남군
됐습니다
되큰게
맥여
모기가
백퍼센트
비웃
빠지니까
빼가지고
사항
샀던
상도
성취
세기
안방에
온돌
욕만
읽기
재방송
정하고
종료
즐거운
지집
지었어
콧구멍
크레
풀을
하겠냐
효돈
후레
##그려
알아수다
그래도이
얼마짜리
때문에도
공부하기
아프대
걱정도
다녀가지고
버스정류
키우려고
알았댄
올해가
웃겨서
편의점에
충격을
가봤어요
어깨에
번호가
어지러워
얼만가
단독주택
나막신
가던데
가부런
갠디
나눈
내령
넣었
다루
무역
뭐죠
미스
밖에도
버쳐
비우
비공
사왔어
삶고
서쪽에
선별
쑤셔
안됀
오인
오브
왔주게
웃견
위쪽
인내
일루
좋겠지
줬네
지들끼리
초음파
침대가
투썸
피디
하이브
학회장
##나리
##하려
##하곡
##여기
지금의
다니네
그것까지는
여행으로
오래가
똑같다
기다린
가족이랑
상황인데
해보난
가까이서
아픈거
감자를
배달이
에스케이
분위기도
결혼식은
모임에서
치매가
마셔도
도서관에
ᄃᆞᆼ
초딩때
바쁜데
하얗고
대나무로
의견을
프라이팬
주유소
성폭행
가캔
갑시다
걸으면서
게이트
경하멍
곁에
교재
꼬마
당겨
더꺼
들으려고
뜻을
모냥으로
베이지
봉가
봉분
샤부
서초
손잡고
시합
시장에서
신장
씻엉
아랑
안했어요
알면서도
양세
오육
원당
정한
채용
팔을
##되가지고
##디로
##됐지
##짜리를
##면을
##그고
##죽을
##랜드는
##비인
##손이
##경기
##하는것
얘기하게
알아봤
다른건
하는데요
코로나에
거는이
보여야
어려와
하난예
말하기도
말하던데
겅행이
##거리면서
색깔을
아저씨들이
십이만
사라지는
잊어버리고
영상도
며느리도
답답하고
가져가라
시끄럽게
과일은
걸렸는데
비닐봉
부부의
알아지크라
알아지쿠과
아름다
헤어지자고
긍정적으로
초창기
방앗간
보글보글
경기가
궨당
기증
끼니까
나뒀
놀았는데
뉴스를
대를
됐었어
되었어
마셨어
먹이면
모으면
무끄
뭐옌
뭐하니까
믹스
바가
밥통
변호
부실
불어서
비키
비틀
사점
살겠다
셍각
소식이
수당
수치가
승용
안쪽
않앵
압박
어그
여가
여주
외고
으악
이난
이발
일수도
절도
질메
집이니까
추리
코리아
퍼렁
하아
핫팩
##었주
##들었어
##보래
##모로
##왔잖아
##웠거든
##밧듸
##희망
##돈가
##곳에
이름영
자기보다
먹어보니까
저기에
사람이라도
느낌이지
내려왔어
떨어트
들어오게
배우지
그러니깐요
##냐면이
이천오백
사름덜이
학생들은
주변의
느끼한
오천만
날씨에
수영도
컴퓨터를
주차장에
일로와
안했으면
욕심을
특이해
넷플릭스에
저렴한
오랜만이다
패키지로
무언가
패러글라이딩
에어비앤
겹치면
계실
고방
고만이
김해
꼬아
내니까
내렸어
놔그넹
는데
답을
대략
두께
딴에는
때엔
막을
먹기는
무쳐
문득
바닐
배지근
베려
삼점
삽십
샘플
서러
신년
썰고
안줘
안하네
앉았는데
않으면서
애야
없으니
여길
웃으멍
인력
집주인
찢어져
쳐봐
층이
코도
편리
한쪽으로
후다닥
##로를
##매는
##기보단
##씩은
##코지
##니까게
이렇게하고
얘기하더라
없어신디
##면서요
계속해서
하는데이
거라이
ᄒᆞ끔
보내려고
끝나는데
닮은게
맞는다
그러게이
아기들은
놔두난
만든다
교육도
경해노난
방송국
바쁘다
오죽하면
해놨어
다듬어
외할머니가
브라운
끔찍해
진드기
샤부샤
강박
관찰
괜찬
그라
기네
기온
김혜
나루
노르
대포
던지
마땅
마우스
무작
무튼
민요
반년
배와
법적으로
불지
브리
새도
세지
세척
세명이
수저
식스
쌤이랑
않앴
에코
완료
용량
일방
자로
적에는
조바
증조
찍지
차돌
친근
큐알
트멍
##인있어
##카보
##에몽
##자금
##하가
##계는
##였댄
##모스
##티지
##체도
##박물관
##편이
그거거든
많이해
들어야지
있어라
그런데이
어디있어
알아볼
이름이라
나오겠지
했는데요
사람들에게
학교생활
거라부난
와서도
그치그치
거난게
보여줘야
안해봔
건강해야
여름은
에이바웃
해주겠다고
기분도
만원을
생활도
나라면
십이월에
축구는
부분들이
사라젼
##스럽지
에스이
걸려도
출근하고
피곤하고
근육을
그릇이
평생을
안들어가
휴학을
금요일에
지갑을
잘생겼다
금액을
저장해
시커먼
껍데기가
나뭇가지
돔베고기
이스라
개이득
아나운서
비즈니스
휠체어
같수다
걸언
나인
낳아야
다닥
다랑
닭은
되어야
떴는데
메타
믹서
밧이
배경이
벨로
보겠다고
불믄
뿌릴
소년
솔라니
수집
승부
싫거든
십키로
양씨
어촌
여태
이문
이대
이때는
입덧
초과
토란
함박
항생
했음
현역
휩쓸
##해져서
##기멍
##죽이
##하늘
##사발
##말야
##생들
##소문
##형을
##먹어도
##세로
##놓아서
##김에
##범죄
아니더라고
이렇게는
나가면은
만들었지
들어가는거
가져갔어
재미있다고
이모부
운전할
나쁘다고
배고플
헤어젼
인스타로
신랑한테
호텔이
된장은
건물주
사장님은
가르쳐주고
두드리는
휴학하고
해놓으니까
두려워
미세먼지
같에
고루
고데기
곤떡
곱아
구젱
구해서
귀걸이
나룩
났잖아
년이나
놀랄
다치고
달리고
라이어
맹장
먹켄
몬스터
백퍼
뱃속에
버치
상속
시아방
싯곡
알파
양철
없을까
엇이민
왁싱
욕이
위아래
이딴
인권
입곡
잘가
재채
접시에
죽으니까
죽었는데
지프
직항
질병
짜리가
찌그러
체지방
치유
코미디
틈이
판포
퍼트
하품
하겠어요
할수가
해바
헤나
##매가
##하더라고요
##오키
##비아
##졌던
##송이
##레에
##케익
##싶은
##졈서
이제와서
아이인데
없어가지구
##들은이
사람이거든
##이라예
들어가면서
있었는지
선생님하고
말해준
서울서
마음속으로
먹었습니다
먹었는지
끝나가지고
지나도
이번달
핸드폰은
가게도
하더라고예
들어오잖아
남편을
신경도
새벽기도
교육이
##이여게
##느냐게
작년엔
안가도
호텔도
에어프라
해외에
마라샹
월급은
에서도
세계가
과일을
거래처
바깥에서
피해가
보말도
주위에서
국가대표
취직을
과목이
키웠는데
단톡방에
ᄋᆢ라
라이언
브라질
끼리끼리
경ᄒᆞ민
예비군
교과서
피드백
##해수욕장
에그타르트
포장마차
거리고
거우과
걸었어
경해야
구축
그넹
그중에서
길이가
꽃게
낳기
노리
놀라고
눈에는
담갔다가
대마
대하는
또라
많다는
물에서
베껴
벤또
부랴
불꽃
뻣뻣
사사
소랑
소형
소재
실려
심할
알로
열리
욕먹고
원체
입니까
제를
지인이
지방이
째려
커도
폴라
한걸
했으면은
##있대
##겠지만은
##추는
##트랑
##하데
##먹어야
##ᄇᆞ
언니의
보고서
아니라이
내려놓고
나왔었어
학년에
대학도
잡아먹는
알았나
군대도
##아이들
다행인게
##신게게
치킨이
잊어불
여자친구도
된장도
계란을
데서는
지난번
두드리고
해영으네
경제가
부지런한
먹어봤거든
들리는데
올랐어
무너져
비해서는
일제시대
어젠가
요즈음
감당이
과자를
꿀팁
끌령
내야지
다리는
덕질
도루
때요
러닝
마리는
맹글
무릇
보도
불륜
붙어가지고
사방
산모
수요
승진
싸긴
얼큰
없기
엠씨
여물
영재
오스트
완도
일이면
잠실
잤지
전까지만
점수를
지들이
진한
쪽쪽
총으로
치울
컴공
켜놓고
클린
팔거든
하우
하차
하시면
현빈
협찬
화까지
확장
##수목
##리필
##주겠다
##보말
##쿠라
##원인가
##천이
##타운
##세대
##덕이
##결에
##멩이
아니어
그런대로
그렇게말
좋아졌
##이라이
애기만
영화에서
받아본
하는거는
안해부난
경허니까
준비한
어른은
서로의
졸업해서
무시하는
잘해주고
##라이더
되나요
다행이야
경해그넹
맞춰가지고
내용인데
카톡도
조심하고
청소하는
검사도
수학을
귀엽네
친해져
배추도
전복도
안보이
안보내
##이름이
이름언니랑
경제적인
미래가
신제주에
갈비탕
좋아했었어
경헤도
하더니만
장례식장
도두봉
찌꺼기
게을러
모니터
주춧돌
이스라엘
마라샹궈
가던가
것까지는
고전
나눌
난리를
내쳐
노랜
놔뒁
누린내
띄어
막은
맙써
메칠
방방
밭에도
벌었어
본래
사교
상한
생신
서가지고
센티
쉬었다가
쌀은
씁쓸
씻어야
앉았어
염증이
이기고
일행
자네
장군
종달
죽었을
지장
집줄
집사님
채워서
표고
풀린
풀리고
하느라
##어근에
##해졌어
##되면서
##수랑
##아리가
##약간
##일때
##줬네
##실걸
##불을
제주돈
먹어봐서
만들었다고
돌아오고
가고싶다
혼자는
먹는대
어제부터
음식들이
경허면
그걸로도
몰랐어요
않았잖아
겅허영
할망네
밑에가
##아지지
녹음하고
보이던데
움직이면
넘어가서
이녁냥으로
생선을
##신지사
대답도
안전한
초코파이
ᄑᆞᆯ아
임대료
포크레인
축의금
선착순
가던
결정을
관리도
나신
나훈
노이즈
다락
단위
달빛
도우
듣게
듣기로는
디스크
똣똣
뛰면
목살
못갈
못하난
뭐요
뭐있지
뭔소리
벗어서
베로
병은
비치
빤스
삼단계
석사
수료
쉐가
신종
신양
실장님
쏘고
아즈
앚앙
언어를
였던
옆에도
요쪽
원조
의욕
이병
이자가
조팟
줄거
창조
캠퍼
콘텐츠
홀리
화목
##더기
##었겠지
##사이에
##상한
##투어
##드니까
##락사
##방석
##십디다게
##름은
##대지
##용품
##층이
##살짝
##댕겨
##암이
우리보고
##하고요
모르난
먹어보면
선생도
가이넨
찾아봤는데
시켜먹고
데려오
했었습니다
해보지
기억나는데
##이로구나
주인은
열두시에
친해지
걸리잖아
가루가
하겠다는
안녕하
심심하면
백신을
걸어가는
부끄러운
자존감이
##지않고
뚜껑을
어지럽
공간을
무한리필
임용고시
크로스
고딩때
오버워치
싱싱한
이엔에프피
트위터
장단점이
달팽이
상견례
숨바꼭질
부글부글
플랫폼
같을
개들
겅한거
곱곱
긴거
노른
놨거든
대변
도너츠
듣잖아
라지
멈춘
모서
못타
봤주게
사농
순경
시위
열었는데
쪼꼬
차면
테마
토트
후제
##었당
##뭐냐
##민은
##고모
##안경
##하켜
##치라고
##세도
##선은
생각하믄
아빠의
있었나봐
애들하고
결혼이
언제든지
가져야
시작해가지고
##어가면서
하는거잖아
아파요
아프잖아
고생했어
그런가보다
##버렸잖아
집안의
미깡이
나머진
너희가
도로에
끝났다
어릴때부터
머릿속
열매가
희한한
떠오르
성읍리
줄줄이
삼간집
가버리
개잘
겨드
견적
견과
구제
귤나무
길가에
내련
놀았던
눈썰
돈가
돌았
딸하고
땅땅
똘똘
못간
벌어도
살리고
삶는
삿갓
선정
성분이
소식을
수명이
시티
쓸거
여하
육성
일흔
있냐면
장염
죄가
줌바
쯤은
차선
척추
추위
특정
판에
폐차
한줄
해마씸
해버린
화재
효자
힘내
##키스
##자격
##병은
##드에
##엄마는
##레븐
##코롬
##습기
##프리
##초도
##링이
##톡스
그러지는
저기로
##이야기
기억하는데
나중에야
많아져
ᄒᆞ루
언제가
재밌더라고
이건가
안해줘
유명하네
기다렸다가
보난예
했을거야
아저씨도
수술도
않은가
한거는
행복을
이후에는
어렸을때
에스비에스
이신거라
맥주가
선택할
유럽여행
조그마
멋있지
군데가
##이란다
국물을
광고를
하늘에서
질문이
기술을
대단하다이
그정도면
간식도
부끄러워서
과수원에
터졌을
ᄇᆞᆲ
오프라인
하수구
설거지도
호불호
에어프라이어
가쿠다
곳인데
광대
날인가
내보
냉정
너에게
널널
달라는
된게
들영
들이는
때라서
뜨는데
만해
말처럼
물음
붓고
붙일
비오
선수가
소라도
않겠어
알이
얼만큼
오소리
우수
입는데
잘하더라
저어
중식
찐따
춤을
푸르
햄시냐
허전
##었더라
##키여
##했냐
##고게
##주점
##보질
##회의
##투가
##른다
##양을
##쓰면
##공주
생각인데
운동하면
같은데요
그럴거면
소리에
중요시
군대는
잘해요
올려도
올라가기
한라산이
사촌언니
바쁘지
어찌보면
오른쪽으로
비교가
문전제
잔칫날
뒤통수
공지
근황
날리는
낫긴
노무
뇌가
단란
동이
동일
두근
들수록
띄엄
마려
면에서
목을
무궁
받거든
발리
밟을
밭담
빅토
사리
새는
소용이
쉬게
야네
얻는
에구
왔었잖아
요소
원어
이비에스
잤거든
정우
지기
짐작
쫒아
클라우
투잡
팀플
파출
플래
항의
핸에
홍어
히트
##지갑
##있더라
##분다
##났고
##보멍
##떼기로
##테이션
##락은
##씩이나
##젠하면
##권은
##엠아이
##과정
##센치
##센스
##컨게
##덩굴
아이다
나는이이
하나요
##이라니
그렇거든
보고이
다니긴
내려왕
이서신디
시작하면서
먹었주게
보여가지고
한국에서는
안해주고
겨울왕
당연하게
저거를
몰랐을
버스는
허난게
서귀포시
드라마에서
데려왔
육십사
젊은이
허여도
너한테도
무엇입니까
다음날은
고양이들
마늘도
골아도
배워보고
잘라야
가운데로
현실적인
능력을
성산일
계절에
한명은
알아듣고
고소한
아녀고
캠핑카
조절을
##볶음탕
아주머니가
크로아
의무적으로
요금제
미루고
##주인공
책가방
유모차
김치볶음밥
토트넘
가상
갈때는
거인
게문
국화
급해
김도
까지도
나꺼
날인데
말하게
맑은
맨발로
무렵
무채
문닫
뭐할까
밥하고
부어서
빠바
뿐만
살맨
설민
술마
스톱
시아
않음
약궤
요약
우아
인해
작지
전봇
종목
주연
지연
지으면
진주
치우는
키웠어
타격
타보고
하구나
화낼
화나는
##렸어요
##했습니까
##이만
##됐는데
##기면서
##주긴
##파는
##풍이
사람이네
한번쯤
아빠하고
어떵어떵
힘들었지
보내라고
아침엔
음식만
비슷한거
말하니
부모도
좋을텐데
걸어다니
받았네
비행기에서
이쁘다고
친해질
아줌마들이
사야겠다
삼천만
연결된
며느리한테
소름끼
부드럽고
바르게
보목리
시아주버니
원숭이
간데
개지
개랑
걸쳐서
고냉
광안
그애
끼니
넘기고
네비
뉘앙
돈이나
뒈니까
따가지고
뛰어서
맥이고
무좀
믿으면
뻑뻑
삭삭
상군
소모
속으로는
수십
아카
아뇨
엘피
오질
올바
우회전
워크
원하지
월인가
음주
일학기
있겠구나
자이가
장미
전의
정글
정제
주부
주는디
코시
탈곡
토막
팔에
포스
핸게만은
훍은
##땐가
##계속
##소설
##장한
##방어
##업이
##통은
##헌게
##없지
##감자
##품으로
##옷은
##귀가
##앉아
아이엠
여기와서
어디꽈
얘기하잖아
있는건데
##이랑이
다니엘
갔다왔는데
만나잖아
운동만
받아줘
똑같은거
생각해야지
걔네한테
시험에
내일이
에이아이가
다녔어요
이천이
새벽부터
연애도
생각나네
인스타에서
불편해서
잊어버리
생기잖아
교수님이랑
고모도
유투브를
검질도
기숙사에서
심심해서
죄송하다고
한쪽은
전국적으로
과거에
먹이려고
유전자
판단을
계좌번호
분리수
동양인
인공지
이집트
스쿠버
철저하게
실질적으로
가전제품
가버린
고는
공방
공감을
구입
까치
낸다고
눈알
대에
동원
됐다는
되든
들더라
뚜벅
막예
맞구나
명예
물팡
뭐하는데
미적
미꾸
바다는
사상
식기
씀씀
양은
얘들이
와아
이공
인부
일정이
임금
자라는
적는
주기로
죽으민
쪼꼴락
척하고
친하니까
클라
풀면
피도
하주만은
혼잣
##도시
##긴한데
##하연
##급으로
##법을
##경영
##명으로
##달아
##협회
그거보다
아이여
이거라
지금으로
##면은이
거지예
괜찮을거
힘들거든
힘들더라
살아라
##하다보니까
오래걸
정말이
안되겠어
육지에서는
##었거든요
넘어갔
보이더라고
마시는데
자유여행
거름은
못살게
게매이
사위는
이름씨는
하느님이
춤추는
버무려
부작용이
마치겠습니다
아무렇게나
부랴부
겨드랑이
겹치는
경상
고발
골키
골앙
공용
공간에
광어
구울
귀도
김을
껴야
냅두고
놨다
닦는
단둘이
덮밥
떴어
말걸
맛만
맞춤
매어서
몸뚱
빌리는
사정이
삼삼
삼등
성을
수족
술먹
시들
시부모
애긴
양심이
에잇
염소
영주
이재
인격
일리
일해서
있으난
저레
좌회전
중문에
쩐다
체스
추세
충실
친족
튀는
펴서
플레
해마씨
해버렸어
형수
형들이
확대
회개
훠궈
##피를
##라만은
##해줘야
##디서
##데레
##만두
##당에서
##그리
##스티
##사이즈
##일수도
##산다
##승전
##놨지
##박질
##센트가
##탈출
##괴기
아니예
우리동네
사람씩
##하고예
언니라고
시간이나
오늘까지
들어가긴
선생은
다니라고
올라완
그랬는지
먹었대
옆에가
알고보니
못해가지고
맛있어가지고
게임에
다녔네
연애하고
##스트라
팔십오
반찬으로
세계적으로
끝났으면
모를크라
친척이
자세하게
전공을
이용해서
느낀게
회의를
아스팔
무의식
손수건
색소폰
응답하라
성산일출
갔냐
같댄
꺼냉
날로
났거든
눈깔
달구
뎅기는
도매
두끼
때잖아
마녀
말라서
먹여야
묶여
밤을
보였
사층
사마귀
산대
서광
시대는
않대
였지
자다
자이네
재질
젊고
정성이
제시
졸리
좁아서
진동
집이고
체질이
친하지
타잖아
틀어서
푸드
하느니
화단
흐르
흐름이
##마랑
##맛도
##되는게
##만으로
##주나
##우민
##사야
##써서
##박하게
##졍으네
##므로
그래놓고
그런건데
##는거랑
해야주게
가서이
좋은거라
많은게
아이들만
안돼여
중국산
찾아보니까
아프기
에이그
한다며
키우니까
허멍으네
운전도
ᄀᆞ르
이름랑도
육십대
헤어지면
만났다
갈아입고
바뀌니까
조심해서
후회가
형제간
주식은
훈련소
그러니가
뭔말인지
ᄂᆞᆷ의
부정적인
튀어나와
반가워
쓰잘데기
이맘때
부랴부랴
개오
거실에서
광장
구성
구우면
귀로
귀를
금악
기내
길지
나눔
나을거
내놓고
누르는
닭볶음탕
독학
드리는
리어
만오천
말마
말릴
맨도롱
먹든
면제
묶은
문짝
방파
방향이
별이
보습
서민
스승
싫언
싫댄
쌓아서
써라
안친
안가면
열차
열대
오억
온전히
워너
위협
일중
일박이
재는
적갈
지짐
직구
찍는데
초중
캐슬
코인
터지니까
테러
표를
한끼
해달라
##지지도
##있는거야
##었데
##겠는거
##만이라도
##긴가
##리만
##안돼
##와라
##원들이
##린이
##일러
##불게
##핸했어
##경색
##프리카
이거라도
##다가이
있어가지구
어디갔
언니들이랑
나가민
여자로
학교에서는
전화했는데
보내도
##마씨게
아침밥
사는구나
보여주기
제사할
어른들한테
드라마에
만원이면
##한다니까
저는요
나서도
자식한테
못하겠고
바뀌지
보다보면
##버렸다고
느끼지
주말에도
위험하지
보기에도
제주시로
사촌오빠
이름네도
사업이
사업자
방송에서
에서는
들어와도
토익은
냉장고도
빙떡은
검질메
구멍에
전공이
베이징
오키오키
세탁소
도서관에서
계절이
칭찬을
레드벨
싸이월드
거절을
예의가
까다롭
도라에몽
베라체
후드티
가기는
감은
거닮
경은
기꽝
나옴
나까지
남기
넘었는데
년차
동무
동기가
들으난
만지면
뭐시
밥먹을
배출
봐봤어
삘기
사다리
속의
써는
아리
안택
안왔
없는거라
연기도
엿을
오맨
이노무
전쟁이
주던데
중이야
지우고
짓이
찍찍
찡찡
퉁퉁
파견
##했덴
##놔근에
##보름
##오잖아
##비스
##허댄
##져요
##베이
##창이
##젓은
아니과
진짜야
제주가
같은거야
언니나
계속하고
어떤데
괜찮으면
괜찮으니까
먹을거야
말해줬는데
필요한거
만들어도
다녀요
회사도
할아버지들이
만원이
데려간
군대가
좋고이
가르치고
궁금하긴
나쁘지는
화장실은
연애하는
개인정보
오름을
소문난
뉴스에서
중고차
걸어가고
놔둬도
가깝지
단톡방
안할래
##그런데
떠오르는
반갑습니다
아시아나
후라이팬에
갈칫국
선인장
카스테라
부들부들
감제
갑상
강황
계세요
계기로
고조
괴물이
교토
그알
기른
깨지고
꼬꼬
꽃보다
네덜
네시간
담근
데미
도라지
돈이라도
될까봐
둘을
딱새우
뛰쳐
맞는디
맡길
명이야
미원
보아
부채
불시
빚을
섬에
소분
숨기
숨어서
시력
실외
십자가
아에
아보카
알맹이
야이랑
양에
억지
열개
올란
웨이브
유료
이로
이치
자릿
저랬
줬을
진화
짝사랑
창의
촐려
칠천원
컸지
키스
해시냐
헌팅
호빵
홀로
화날
후쿠
후문
휴무
##마라
##지거나
##었었지
##신다고
##해갖고
##났수다
##긴다고
##트라
##하겠네
##바락
##산지
##댄스
##코스터
##축구
##증은
##딸이
그거구나
아이티
나는게
지금보다
좋아젼
같은것도
엄마만
아무데도
얼마지
힘들었을
나왔으니까
필요없어
이것보다
허난예
데려가고
잘해줘
나서서
시키려고
점심시간에
기도하는
사회에서
웃긴거
일반적으로
ᄆᆞᆯ방에
하믄이
마찬가지지
요리사
직업도
택배가
본인들이
들어온다고
친척들이
시즌이
때문인가
하시는데
계약직
세금이
재수강
댓글을
서비스로
목소리를
일일구
민망해
일으키
드래곤
캄보디아
레드벨벳
감히
경사
골골
귓구멍
끼를
내는거
높은데
다금
닭도
데워서
돈주고
돌안
먹냐고
명이면
못들어
무인
물감
밤중에
벌벌
법도
비춰
뻔했어
살랜
시시
안썼
안가지
알리
엔드
원피
육체
읽언
입었지
있기도
잠들어
잤다
적지
춥다고
토박이
##가든
##인고
##거에
##안해도
##주마
##주스
##반으로
##생을
##강사
##헌댄
##머리를
##점기
##껜가
##빼고
그래버리니까
그거라고
그렇게라도
언니만
어떻고
모르거든
그러면요
보니까요
전화는
먹었언
먹었습니까
어쨌든간
건데요
가이를
동생들이
어멍이영
돌아가션
신기한게
없지않아
만원인가
##이었단
시키니까
받았댄
메밀묵
엄마한테도
난리난
직장에서
빌려주고
경찰에
똑똑하다
생선은
검색해서
주차장이
거리면서
죽는다
댕기당
치마를
야이네는
사발에
저렴하게
막둥이가
흐린조
세무서
가부
결말이
그면은
기죽
기미
깐깐
꺼는
꼽아
대서
동대문
된장이
들린다
라이트
만도
매서
명당
명언
뭔진
변이
보겠어
빵은
빽빽
뽑는데
삼차
세포
쇠가
수첩
쉐이크
싶엉
썰렁
안시
안돌
오니
윗동네
이학기
있든
있드라
재정
재벌
저슬
전단지
줄여야
중복
차원에서
창자
찾으려고
크라
패티
폭이
피우
한인
혼날
회화
##했당
##전화
##기떡
##주멍
##하에
##스틴
##장이랑
##망을
##침에
##본거
##없게
##담배
##과의
##잡이
그렇게했어
그래서요
##들이는
시간인가
그것도이
보고도
나와부난
코로나는
물어볼까
나왔다가
보통으로
내일로
경허여
다르대
요즘은이
스타일이거든
이천만원
ᄀᆞ는
물어보난
##언니는
잊어부러
고사리를
고등어도
해외는
예쁜거
마찬가지라
맥주를
걸리는데
사장님이랑
표준어를
집중해서
있을까요
과제가
있으세요
해줬지
시내에서
발표를
부탁을
갈비찜
유채꽃
의료보험
경영학과
가운디
연북로
비둘기
유통기한
만장굴
방탄소년단
가크라
개새끼
걸으러
구진
끼워서
낯선
느긋
독하게
드려야
들었네
등등
딸래미
뛰어야
모사
몽둥이
백년
베리
복합
본점
빌리고
뻔히
뿌러
새까
서두
숨메
쌤도
쓰여
열엉
열리는
이월에
잔나
잔다고
잘했지
잘하긴
저것이
절친
접고
제지
줬나
줬어요
지으려고
참나
크거든
하끔
학비
한없이
한명이
할줄
했게
허다가
헐꺼
헤봣
형네
휘어
##마음
##되믄
##전으로
##행해서
##리하고
##주곡
##하멘
##와그넹
##영은
##먹게
##햄쪄
##복은
##표가
그러는지
하고자
나오자마자
때문에이
할머니를
말해신디
일본으로
이번이
겨울철
했던게
해주는거
이해하고
드라마나
데려갔
따라갈
않았으면
스트리
상황은
고민중
보이는거
같고이
못하지만
시어머니한테
고모부
어이없는
감사하고
건물도
번째로
물어봐야지
모임에
않으카
내려가야
배고프니까
대표가
대체로
하고싶다
제목은
농협에
수확은
한쪽만
잠시만요
일제강
까다로워
가문잔치
긍정적인
수행평가
##세미녕
으이구
여럿이
발자국
각시는
감기가
과로
과자도
굿즈
금붕
기아
기간에
꼬셔
끊지
난대
남사친
내는데
늦을
당최
동홍
동서가
되맨
두피
때처럼
떠는
뮤직
미스트
바빤
밖거리
봤지만
불리
불쾌
비서
뼈다귀
산굼
새록
성대
성동
숏컷
수협
실무
안은
않암
얼려
없니
에밀
오등
옵서
이의
인실
일팔
점핑
집밥
집마다
짝이
캐스팅
클립
파프리카
편한데
한겨울
해놘
헐때
헤근엥
##으게
##렸나
##놔그네
##들로
##산가
##순위
##봅디가
##농장
##ᄃᆞ
사람네는
##에서가
그렇게까지는
아이의
모르커라
이름이름
얼마냐
오늘따라
느낌의
느낌이라
있을텐데
별로인
이서서
재밌었지
일본의
먹으레
생각해보니깐
그때는이
저녁도
재미있는데
핸드크림
한다게
경우에도
살았구나
왔다리
상관언
대단하지
자연이
감자튀김
에스엠
티비로
지네도
방법으로
지역에서
잘라가지고
포기해
검색하면
냉장고가
숙소를
이실거
놔둬서
적응을
표정으로
달달이
행정실
등급이
버릇이
버무려서
인건비
백두산
바락바락
호캉스
빅토리아
것인데
게신디
계셨
계시는
관세
구덩이
군고구마
김만
꿩마농
누른
느리게
닿는
되거나
드네
따문에
만뒤
메어
무화
문서
번다고
보겠다
부리고
부자가
붙언
사골
샀나
쉬다가
쓰는디
영하면서
옵니다
왜그래
요것
울컥
일하니까
자잖아
잤다가
제비
좁고
치기
친환경
피클
한개
해신지
형아
##하드라
##멍도
##시더라고
##소라고
##간을
##대면
##벳긔
##받으면
##재밌
##헤야
그거에서
학교랑
너네들
다음이
무사게
왜냐면이
다섯번
말했을
대박이
##버려가지고
부르는데
가르칠
걸어갈
자식들은
받았나
기도해
받을려고
티비도
나갔지
공항이
시원하고
자유로운
이런데도
계단이
스케일
안정적인
들어봤지
얘긴데
순서대로
더더욱
어촌계
가그내
간덴
갔겠지
개많
건져서
겸손
경북
괴로워
궁합이
낑낑
나니
나둬
납치
놔신디
다단계
돼지는
돼버린
뒤쪽에
들으라고
땐이
뜨지
많나
매장이
멋쟁이
목록
몰른
못하면서
베네
보약
봤니
불은
살이야
선크림
송악산
슈크림
안에서는
앉안
용기가
원까지
저걸로
적성에
전라
제물
조생
조랑
조곤
족보
지긋
지대로
지렁이
질긴
책에서
체로
카이
턱이
틈에
티는
하댄
하머
하라게
해줍서
헤사
흡연
##류는
##볼게요
##린디
##장장
##대나
##대라고
##불에
##술을
##받지
##적인데
##권에
##삼아
##날락
##겟다
##극장
##봅시다
그거보고
이거가
들어부난
어디갔어
##이라게
같이들
한국어로
나온거야
보통이
신기하고
##부러야
준비도
안나네
운전해
모르는구나
받았고
경험도
이쁘긴
연습할
끓여먹고
듣는다
떡볶이를
노력은
보냈지
취소하고
노트북으로
함덕에
선수들
양말도
대장군
혜택을
비벼서
항공사
구덕에
막히게
비쌌어
오글거
##드릴게요
여신강
딱딱딱딱
리액션
##비인후
골키퍼
개운
굴뚝
굵게
까불
꺾어서
끌리는
나르고
났었어
달이면
대대
덩치가
땄지
만일
바우
번거
본격
세끼
섹시
신사
실이
쓰맨
야단
얇고
요걸
있지도
조물
죄인
주단
줬었어
최강
칼칼
캐러
피지
한남
한량
헙서
##었덴
##다란
##이기는
##은지
##분댄
##우면은
##바엔
##일라
##껄로
##창에
##않고
##훈이
##결이
아니잖아요
생각지도
해야죠
나가야지
얼마큼
오빠의
있었겠지
갔다올
살아질
먹었주
했지게
하는거랑
아는게
하게되면
이야기도
ᄀᆞ시락
하긴이
대단한거
힘든게
두개만
이쁘더라
마리씩
충격적이
들었었는데
무서운거
편안히
지하에
연결해서
배추가
전복은
심심할
맞아맞아맞아
허당보난
데려다주고
노인네
피티를
아쉽긴
해나난
담그고
멤버가
잘살아
외삼촌이
뒷바라지
존맛탱
박정희
샤부샤부
개선
공강
구천원
꼬맹이
닭다리
돈내
등을
리버
맞팔
맞거든
맞았지
미러
바엔
번갈
보기로
볼꺼
부재
부장님
살이지
석굴
소지
슬라이
싸다고
알맨
얻을
없주
여학생
예순
울타
유효
인덕
입국
있던거
잠자기
재단
제때
조폭
조사를
좋드라
지둘
진자
질루
차가지고
철에
캡틴
통학
한심
헤헤
흑백
##부떠
##도요
##자지
##기때문에
##버릇
##트맨
##말아
##생에
##상태
##불주
##꼬리
##플레이
##히니까
##과랑
##브스
##빌라
좋아마씨
하지를
하지마는
있었냐
서울이나
사람들은이
가야될
지나야
##사람도
건강은
서귀포로
드라마로
이천만
고생은
보이지도
인생에서
호끔씩
만났거든
갈아가지고
신청할
기계도
들어간거
친정에서
노력하고
의미로
바쁘면
기숙사가
안들고
내려오니까
##할머니가
빠르지
어르신들은
걸어가면
연구를
월요일부터
헤낫저
내려와가지고
호주에서
십육만
비빔면
아껴서
코코넛
쿠팡에서
나뭇잎
쪼그만
스쿠터
교도소
국회의원
다닥다닥
거행
건지는
겡으네
골든
과일이
굴렁
꼬아서
꼭대
꽁꽁
끈적
끓는
나부난
나란히
놀려고
더껑
뒤를
따르
딴거
땄는데
똥그
마중
멘드는
문의
번쯤
비좁
사명
사단이
삼박
새서
섣달
수눌
시선이
식어
식감이
심어야
쓰니깐
않겠다
알림
엎드
오목
오시는
육일
일들을
입던
전골
제자
주래
줄거리
찍어도
촐령
팔려
편하니까
풀리는
하울
해봅서
했신디
호로록
##마개
##있댄
##을꺼
##같지
##자녀
##할게요
##허레
##무시
##짐직
##따나
##증도
그런대
사람일
하는걸로
##하는구나
어디라고
어디선가
계속해
나오냐
나오라
##인데이
느낌인가
할머니의
말해가지고
서울에는
말이주
##거라이
가져가지
아들내미
보리로
동생을
저녁으로
부모한테
했었다고
생겼거든
만났잖아
칠십이
어렵네
한라산을
생각하는게
데서도
들어와야
구워먹고
아부지는
어딘가에
고무옷
아이폰이
못가니까
보리밥에
##실거여
졸졸졸
구쟁기
가려서
개들이
게나
고친
끊임
났어요
넘겼
닭도리탕
닷새
되부런
될켜
드나
따기
라마다
로즈
모유
못참
뭔지는
바나
반착
번이라도
변형
변명
봐부난
부숴
사겠다고
서중
선반
섬유
신축
쌤들이
악플
안싸
용천
워치
원이고
의원
이비인후
작잖아
정해야
제피
종식
좌석
주냐
주년
지민
징그러
짜잘
쩝쩝
처리를
최곤
클러
키보드
하단
하더만
한판
효율
##마요
##해젼
##났던
##정에
##오믄
##작가
##차고
##세트
##망에
##왔네
##남도
##머스
##김밥
##맥주
우리말
그거까지
하는건가
그때랑
나오민
얼마전에
일단이
어머니네가
전화행
만나면은
재밌어서
싫어요
그거는이
오십일
비슷하고
알았대
했었대
살짝살짝
주소도
느낌이냐면
귀찮게
키로가
신고해
고사리가
해외로
어울리지
십오년
나름의
의사도
목욕도
후회는
형제들
눈물을
삼성여고
한마음
근무하는
##병원에서
발라야
손가락으로
비닐에
만족해
부끄럽
그전엔
기다리다가
내불민
대상으로
수고하셨습니다
전역하고
가치관
국제학교
외워야
독특한
와사비
오현고
예고편
밸런스
관음사
롤러코스터
알앗수다
갑서
강하고
겁낭
겨믄
겹치
과랑
그아
금식
껍질이
난댄
남으니까
낮에도
높지
다스
단식
도내
돈이면
돌았어
되냐면
들도
듬뿍
때로
막혔
말려야
망종
먹통
멋지
명에
무침
벌기
병도
볼록
봉고
사랜
않던데
양주
어버
엎드려
영하는
왔던데
인자
일사
일하다
있수다게
저만
젊으니까
진실
진심이
찾다가
천도
큰돈
투는
티도
편히
포지
폰으로
폴더
풍족
허구
흐지
##진거야
##하길래
##아삭
##았수다
##여친
##산으로
##감시믄
##질게
##샀어
##뜨르
##맞고
##꽂이
##겋게
이거보다
좋아합니다
얘기하면은
시간까지
그렇습니다
만들었던
들어가네
아닌것
올라왔어
살아보니까
있지안
ᄒᆞ젠
안되여
많은지
중국집
만들어주고
아버지를
걱정할
경우엔
겅허는
생활하는
느낌이었어
고생하고
못하겠더라
사라질
빌려가지고
담아가지고
미깡낭
어울리고
바당이
사업하는
해부난이
동물들
둘째가
목욕을
유행이
지금까지도
죽는다고
해여그넹
보낸거
느꼈지
물질을
비교하면
형부도
오메기술
ᄑᆞᆺ죽
세화리
트레이닝
거문오름
할머닌
리조트
들락날락
무증상
아일랜드
리어카
가켜
가공
가더라도
게멘
경복
고비
과하게
귀해
그녀
금능
내거
넘길
녀석
년동안
누웠
눕고
답례
돋는
동작
두명이
따위
땅에서
레저
맘스터
매기
매장에
먹지만
먹거리가
뭐하면서
미디
보였는데
본사
비오는
빼라고
사우
사잰
사시는
사연이
삼도
서답
소맥
수레
심화
안하려고
앞치마
어몽
없진
영창
왼쪽으로
원어치
웰빙
의식이
이섰
자게
장사는
저어서
정방
종이가
좔좔
주휴
죽어가
죽어야
중환자
직관
찌면
차츰
촛불
칼호텔
토평
통영
펀드
피해서
하리
학점이
합디다게
해소
허억
후에도
흉내
##행게
##보호
##갔네
##문학
##락도
##벽이
##조각
##뜨기
##납니다
##좁ᄊᆞᆯ
##밴드
이름씨가
지금에
있는것도
무슨일
되는건데
결혼했어
전화하니까
다음부턴
별로고
언제야
나왔더라고
알바로
먹으려
저녁엔
해주려고
서귀여고
스타일이고
가족을
된다게
녹음하는
받았대
대학교는
되는거고
야이한테
이만해
날씨는
에스유
손님은
다이어트는
눈치도
ᄆᆞ믈
만난다고
중앙여중
돌려야
면접도
배추김치
그분들이
들어온다
취소해
걸렸다
상관없고
내려오지
염색을
해결해
해볼래
섭섭한
가리키
심리학
마셨는데
신호등
웃겼는데
유아교육과
피로연
실시간으로
배낭여행
스노우
제육볶음
요술사
달무티
식용유
백호기
유방암
순식간에
성산일출봉
가재
간도
개라
개들은
그럽
껴가지고
나눴
년밖에
덩드렁
도가
로보
만지는
메느
면서
보더라고
비우고
빼때기
살믄
살거야
샀을
상업
생년
쉐도
씻은
안읽
약하게
어둑
얻은
엔진
오겠다
온다는
와갖고
외할
원전
월말
임원
잇는데
잘했어요
장구
저물
적다
정체
조문
주름이
줬댄
쪼들
토하고
파스
팔도
피면
하구
하늬
한방
해졈
허어
홍세미녕
##부라
##가가지고
##했다니까
##게는
##렀어
##그럼
##상하게
##울거
##았대
##왔댄
##질로
##날도
##초는
##좋은
##맙서
나는거라
들어난
나도예
먹어줘야
먹고정
그렇기도
나가는거
얼마가
정도까지는
이러거든
다시마
전화했어
이서나신디
운동선수
먹었냐
학년인데
많은가
##부러서
잘못해
걱정하고
따라가는
살았는지
##버려요
부르니까
나올지
생겼을
가르쳤
자연분만
생각나면
##어져가지고
생선도
두드려서
기대하고
목표로
언젠데
어딨지
임신한
샤워하고
##스러워서
나누는
못생겨
이거이거
무거워서
동글랑
창호지
지겨워
가오리
간식을
거거
거였지
거군요
겁난
구하기
금강
까칠
난이도
내버리고
넓으니까
늦어도
담궈
당근에
로건
루테
말차
말이라고
말들을
매장에서
무척
미시
받긴
법한
보카
복근
불언
비판
뼈를
삿포로
서프라이
선입
슈가
시력이
아효
안듣
않으려고
열정이
온수
요청
유턴
인줄
절이
좋음
좋지는
찰떡
초롱
팀을
판정
푸들
할지도
##되겠다
##리그
##정돈
##치기로
##오티
##상담
##바탕
##예배
##적일
##없는데
##님들이
##체에
##렷을
##휴직
##셀로나
##니까요
아니었지
근데이이
그거예
하나면
좋은건
닮아도
그것보다는
서울에서는
언제는
말이주게
오래돼서
보내라
먹었었거든
화장하고
비슷하다
부모는
가족도
##정도로
안나오고
있어야돼
짜증나고
좋았다고
없었다고
보이맨
바뀌면
들어갔거든
신청하면
소금도
말할까
귀엽다고
모자를
수능을
사귀면
같긴해
취업하면
예약이
한대요
체육복
가시가
사무직
구멍을
다음주부터
경제적으로
요가도
어게인
자전거를
끝내야
베이컨
놀이공원
얘기했지만
창문을
복잡한
주워다가
오래됐다
아내의
유니클로
설레는
세븐틴
이에스에프피
그래가주구
어학연수
명사수
구미호
프리랜서
유니버셜
가잖아요
가사가
간수
갈등
갔다는
견딜
골다
괜츈
낙엽
내라
넓적
녹색
말란
미르
밍밍
봐볼까
부천
분류
불로
사켄
사는거지
솔입
솜이
숙모
스펀
신데
쌩쌩
쓰세요
아슬
안장
안가는
왠만하면
울렁
원칙
재봉
쟁반
절에서
조로
좋진
좋으니깐
주둥이
집주
찬물
참다
천명
취하면
커텐
커부난
터젼
톳밥
화도
훌쩍
##었는디
##리곡
##할라고
##시거든
##오기
##연습
##형도
##읍써
##세끼
##살건디
##헤마씨
##조곤
그러기
##들이야
친구처럼
어떤게
애기랑
있지않아
싶은지
보리밧
찾아와
건강할
신기하더라
말했대
걱정하는
미안합니다
해주켄
##수가게
여섯명
종류를
못하겠다고
위험하다고
공무원은
자격이
두개가
오라동
고맙댄
토익반
도망가고
합니다게
부터는
웹툰이
들어왔을
아이폰은
숙소가
군인들
도시락을
갈비뼈
좋아했언
그만두면
엘리트
아지망
오리지날
나옵니다
소곱에
영영영영
조바심
갔주
갱이
격상
괘씸
그의
까봐
꽃다
납품
널어서
넣으니까
다져
대반
대선
동반
되가
되다
떠들고
막연
막아서
말젯
먹던데
무관
뭉쳐
밋밋
배원
버랭이
벗엉
본적이
봐보
비긴
빼떼
뽑앙
사둔
사준다고
상쾌
술이나
실행
아멘
아근데
얽힌
업엉
업어서
엇다
오는지
의상
있수게
지짐이
진도
짓어
쪽잡
칠년
카키
코타
타당
태연
테우
톤이
판이
폭행
필러
할려면은
해를
해내
해놓으면
했으니깐
홍세
후손
##까리
##어신
##더블
##크래
##해에
##고랑
##그녜
##사하고
##약도
##드니
##장시
##여부난
##베리아
##프는
##머리에
##엠알
그러세요
아이구나
하고있
하고나면
시간동안
괜찮겠다
처음은
느낌이고
가는건
운동해
여행하는
걸로는
못해부난
뭐라해야
스타일이야
##아니면
##한다면
무시해
##다니면
어쩔수가
얘기해줘
축구도
배달도
이랬더니
소금이
생기긴
계란말이
요리하는
떡볶이도
스토어
우유에
웹툰을
국물만
자취방
대가리가
세워져
프로그램을
메뉴를
태어나면
과학적으로
오른쪽에
혼자만의
댓글에
지하철을
예배를
공연을
야무지다
살림을
경쟁률
손주들
탑동에
티켓팅
우스갯
유난히
공동묘지
물음표
가정이
간질
개명
고달
고도리
공장에서
기잖아
낮춰
넓패
눈앞에
늦었어
더라고
뒈면
만오천원
명함
못써
뭐해도
박는
범위
봐봤
비포
사왔는데
살기는
세멘
소원이
쉬운데
스윗
쏙쏙
쓴대
아재
안이
앉아야
애껴
어욱
오씨
온데
일이라고
읽으면서
잔다
잡히는
족구
줘요
찔끔
착하다고
참견
카메
품종
하와
호응
휴직
##었신디
##가라고
##카메라
##했었네
##성한
##당하고
##자식
##덴데
##교가
##노민
##방네
##단추
##차이가
##덜토
##움도
##둠서
##덩어리
##젓도
언니들은
시간밖에
그렇더라
되는가
결혼에
내려야
보내줬
가지가지
먹으세요
어서난
소리로
보여도
유명하다고
서귀포도
아닌데요
장난을
안나지
살았었어
했었구나
모양이지
사랑은
사랑하고
##했던게
자식들도
축구부
않은게
웃긴데
계란이
이디도
오일장에서
가난이
감사하게
이녁은
엇어마씨
가보지
누워가지고
당신도
뒤집어서
자취할
걸렸다고
버렸는데
올라오니까
계약서
햇빛에
와중에도
쓸데없이
업무가
잔칫집
꼼꼼하게
말해보십시오
여하튼
흐지부지
간은
간편
같지가
고문
고냥
고학년
관객
기왕
김연
나왓
나같이
네팔
년간
늦으면
달란
당했어
대헤서
돈이야
돌면
들엇
뚝배기
만리장
많주게
많잖아요
많으난
말던가
무산
받으멍
뱉어
불태
빌고
빡쳤
선명
숨도
씨만
아사
안그러면
않습니다
암이
애호박
오호
오잰
오타
오레
오더니
옷들이
용도
우한
의지를
이진
이선게
일하기
자금
잔씩
짜르
짭짤
출생
특허
파네
팔일
팽나무
평점
푸짐
학식
헷는데
호령
##마르
##슨가
##다라고
##들인
##안테
##할걸
##진디
##하이
##치원
##쟁이가
##칼국수
##차에
##져부난
##명절
좋아하더라
엄마이
했어야지
괜찮았던
나와가지구
전화하는
느낌에
말이꽈
오래비
알바해
알바하는데
##어나서
삼십팔
무서우니까
에이포
미안하고
영어공부
스물셋
궁금한거
보이스
충격적인
있대요
안하켄
명절에
돌아다니지
해준대
썰어놓고
못가게
하이틴
줄어든
배송비가
내버려두고
습관을
혜택이
올리브유
은혜가
컨디션이
시나리오
자본주의
문방구
경한
고량
고집이
공단
그중
글라
꿩코
넷이서
놓으라고
늑대
도지
말합니까
모험
못가지
본대
봅서게
봐보자
빼지
사태
살펴
살부터
삼분
상무
섬세
소외
습기
시럽
쓰이는
안합니다
왔다는
용눈이
육월
으쌰
일부로
좋데
천상
추측
팔라고
##난디
##정부
##정리
##커트
##국대
##머리는
##암서
##ᄒᆞᆯ
##브러
##논거
이제나
##지고이
그러길래
조금밖에
처음이
그것보고
시작했지
##그넹이
한국의
만들어야지
앞에만
카페인
했었단
좋을꺼
돼지거름
기름도
헤어지는
어렵긴
메밀은
이디가
웃기게
이때부터
얘기하는게
몇번을
말하지마
낚시를
귀신을
재료를
범벅도
결과를
##지않애
광목으로
안맞는
머리카락이
기와집
아삭아삭
문재인
겨울왕국
갈걸
감서
개설
경치
경희
계급
공황
끝을
다닙
더듬
도세기
독재
두시에
들인
락스
래퍼
루틴
많지만
멍멍
멩글
묻을
바꽈
바지는
박스를
백숙
병으로
보트
분까지
빠이
산골
서예
섬이
수호
심수련
씩씩
아져
안볼
앵무
언어가
에요
오므
완결
외박
용량이
의자가
이순
인물이
입대
저사람
정성을
종업
주걱
준거야
중학
짊어
찔러서
차곡
층은
칵테일
털어져
통보
틀리니까
티빙
푹신
풀도
품앗
할말이
항에
해독
했겠다
현실에
##으켄
##지라
##인걸
##다니깐
##이믄
##전골
##수제비
##보는거
##였습니다
##역에
##허기
##허잰
##졌는지
##육백
##금방
##석으로
그러진
거기가면
그러니까예
어디는
모르주게
##는거잖아
먹어나
알아주는
그렇다면
하지게
거지게
이러이러
먹는건
시작된
똑같을
그럴려고
찾아봤
잘못을
들어오면은
기분은
남편하고
서로를
비행기로
주변에도
못하겠는
기도도
물어보지도
따뜻할
가져가도
해가믄
추억이다
보냈거든
바닷물
국물도
유튜브에서
전체적인
맞았다고
십이월달에
ᄇᆞᆯ려
초가집이
바르셀로나
태풍이
네모나게
하느라고
혈액순
공포영화
중앙로에
서브웨이
천지연
포트폴
디지털
수두룩
라라랜드
호날두
스누피
불시착
경복궁
어몽어
간장이
갈거라
갑분
고거
굴목
꼬리를
꽂혀
끊었는데
닫혀
달부터
돈들
말든지
몇달
뭐였어
뭐했지
밤엔
벗으면
변하지
볏짚
손에서
심하니까
쌓는
쓰는지
안생
얼핏
였으면
